/**
  ******************************************************************************
  * @file    network_data_params.c
  * @author  AST Embedded Analytics Research Platform
  * @date    Fri Dec 29 18:05:42 2023
  * @brief   AI Tool Automatic Code Generator for Embedded NN computing
  ******************************************************************************
  * Copyright (c) 2023 STMicroelectronics.
  * All rights reserved.
  *
  * This software is licensed under terms that can be found in the LICENSE file
  * in the root directory of this software component.
  * If no LICENSE file comes with this software, it is provided AS-IS.
  ******************************************************************************
  */

#include "network_data_params.h"


/**  Activations Section  ****************************************************/
ai_handle g_network_activations_table[1 + 2] = {
  AI_HANDLE_PTR(AI_MAGIC_MARKER),
  AI_HANDLE_PTR(NULL),
  AI_HANDLE_PTR(AI_MAGIC_MARKER),
};




/**  Weights Section  ********************************************************/
AI_ALIGNED(32)
const ai_u64 s_network_weights_array_u64[28351] = {
  0xbcfbe4b63db1d485U, 0x3da5f7c6bcb4dadfU, 0x3b892ab13dc740f2U, 0xbcc7991f3c16dc99U,
  0x3dfa57e6bcbe2f18U, 0x3e3014cfbcb9542fU, 0xbd067eb3bc5e9a96U, 0x3e9acab6bc8d0bebU,
  0x359a9528bc190dfdU, 0x3e0991c53ec27b75U, 0x3bd0c9e6be910819U, 0xbf0772ffb6bfd2ceU,
  0xbbf76ec63e139c05U, 0xba0cc8c83eb016e2U, 0xbe2d75febdb15536U, 0xbdde2c423da8142bU,
  0xbdbce2cdbd287013U, 0x3d647f173d98bc49U, 0x3ca78d813e190723U, 0xbdf6fdac3d9119edU,
  0x3bd475613dc0a863U, 0xbbe831873da380d4U, 0xbd8f9217bc995b92U, 0xbdee7f81be0a4384U,
  0xbd4157cd3db69f06U, 0xbdf3df98bb351ffeU, 0xbd9388c83dbb4afaU, 0xbded85c9bd772fdcU,
  0x3c596a2cbdcc1593U, 0xbd8ff2d73d330d00U, 0xbdd7dd8fbde9638aU, 0xbe172a6b3e0f3048U,
  0xbe156fc4bce23b9aU, 0xbd6076ca3de28bebU, 0xbd9473813d43ca78U, 0x3d1e8a37bdaea261U,
  0xbcf72cd43d7298b9U, 0xbdd6e726be0ffc58U, 0x3cb8a23b3d8a2b03U, 0xbde439163d105e2fU,
  0xbcbfa2483dc3eca0U, 0xbda5e26dbe04163cU, 0x3ddd673cbd6add01U, 0x3d884d653d76f018U,
  0x3d8316303bd10232U, 0x3c2273bd3d6764c4U, 0x3d0de77d3d84c61aU, 0x3d162cf9bc382ac7U,
  0x3d41f6173df84fa7U, 0xbcd67f0f3d588062U, 0xbdb4a54dbd28733bU, 0xbe0e3f3ebdf9257eU,
  0x3c0723813ca53aa2U, 0xbcaf0681bd4d3178U, 0xbda7de5d3d81d9b0U, 0xbdb312fabd23b617U,
  0x3e199b93bd9bb3beU, 0x3c9a39f73d662faaU, 0x3b822e9abbf75f43U, 0xbd11fa11bc88f979U,
  0xbd476195be20e6e0U, 0x3d0b442b3d22f914U, 0xbca368a2be131285U, 0xbc36c5efbda908e0U,
  0x3c5b71c93d91bbfeU, 0xbdcdc79fbd69e627U, 0xbd7b02933dda0714U, 0xbd6c98ec3cf4ca59U,
  0xbd703f1f3d31dd2bU, 0xbdc4c0d5be03198aU, 0x3e1732cebdad9d74U, 0xbd1b52fcbb9a2323U,
  0xbd76f8cdbde7250dU, 0xbd600b8a3d346300U, 0x3c1f504e3dae8c44U, 0xbd3c09673d9016e4U,
  0xbd9a3cae3c2ae79eU, 0x3be835a0bd6c5f1fU, 0xbe300b373c38a85dU, 0xbdbc11c3bdc49cbaU,
  0xbd12b2a13d134e91U, 0xbdbb4e053d3d4598U, 0xbdabb7983d936a9cU, 0xbd9d0565bb7bfec0U,
  0x3df95591bd74a42cU, 0xbdb633cf3d07038cU, 0xbdb2565ebdbc8aa6U, 0xbd98893bbcbcdac0U,
  0xbd6bf098be0b131fU, 0xbd407fa63d0a4858U, 0xbd6262c5be08a142U, 0xbd7f573abd52ff2bU,
  0xbdcc04ef3dd93ee5U, 0xbd94ec1b3885b608U, 0xbdc062c73dc5655aU, 0xbd446dc5bcfa4e06U,
  0xbdba428b3e0f065eU, 0xbd699ebfbdc751f0U, 0x3d7b5975bdbd2c1cU, 0x3c7bda943d4365beU,
  0xbd04bccabcccb5d5U, 0xbd5264073d5a1dd9U, 0xbda2d8b2be1a40ebU, 0xbd8bf5753c1299d4U,
  0xbcc8b0a4bdfdd445U, 0xbd0a4dbb3b17c5b7U, 0xbe12f33b3cf184cdU, 0xbc98837bbd99598fU,
  0x3d2531203d61fe99U, 0xbcd30b91bcbb42d1U, 0xbda1a567bb64238cU, 0xbe0c1f613cf7c6b3U,
  0xbd1317edbdb16b29U, 0xbd3f86893d75f990U, 0x3c8c71a8bdc6aab1U, 0x3bdd96563d068d2cU,
  0xbc58677ebdc6fbbcU, 0x3dc58e7abda71cadU, 0xbd4cade5be1c30e4U, 0xbc582571bd215920U,
  0x3c8845443bd19f74U, 0xbd88f76d3cc21ad2U, 0xbe3faea63dc8369cU, 0xbddc12a7bce4449aU,
  0xbd8e83003c94cebbU, 0xbd0bc65c3cc8ec6fU, 0x3dc62069bdd3ae12U, 0xbd61dba53c883f11U,
  0xbdc79245bd0072efU, 0xbdb22f213d92938eU, 0xbcb023b4bdc5fa72U, 0xbc8cb6103dafb8e5U,
  0xbd895b70bd4de316U, 0x3da62b7ebd48f6d2U, 0xbd38e6f6bbe72a8aU, 0xbdd8449cbb326150U,
  0xbdc32e3a3e07434fU, 0xbdd44a9bbe04383bU, 0xbdae32d83d92562bU, 0xbd900b92bdc07caaU,
  0x3d119da1bd8394bdU, 0x3ded69383e0cf9afU, 0x3cf86d023df9c31eU, 0xbcd15c7dbc45fbafU,
  0xbd645154be12f144U, 0xbdaa2b5d3d9a1b2cU, 0x3e38fef0bdf76e45U, 0xbe214fa7bdb9d5b9U,
  0xbd97bebb3d2f7ce8U, 0xbd85a1d3bd4f7e9aU, 0xbd94f8b73d57e5dcU, 0xbdac61e5bd7d67bdU,
  0xbccba22d3d8429eaU, 0xbc885cbdbd9f5cdcU, 0x3d5e08cebd966dd3U, 0xbd08dd043d661aa1U,
  0xbcef82a5bd3a2ff5U, 0x3c8dbe313dbc1c11U, 0xbe1a7a513d024e21U, 0xbdbd3eb23d2db88eU,
  0xbdcb4601bd87bde5U, 0x3d9b2520be3ee508U, 0xbcbfac783e3595faU, 0xbd9853473c549d38U,
  0xbd941f333d26c58bU, 0xbdfb4cacbe0d9dc5U, 0xbdf89bc43d880df3U, 0xbd2533cabdfc2e90U,
  0x3d557097bddc9bd2U, 0xbd5690433d53bb99U, 0xbd7e7790bdadf245U, 0xbd950ffd3d8d59c4U,
  0xbe06342abdae4a14U, 0xbdf80d7c3de9f016U, 0xbddd844cbe0a93e1U, 0x3d577283bd737fc4U,
  0x3bdd13943d60fe7eU, 0xbdc8965abdae9894U, 0xbd0276b3b96bcd16U, 0xbcaf0f6ebe249a8cU,
  0xbdb1b7793d6cde31U, 0xbda91ec8be1cb078U, 0x3d2ed15e3c926844U, 0xbceaf28d3d882fafU,
  0xbd9c3f14be33ad34U, 0xbe126a383dbda8e9U, 0xbce7e578bd84f335U, 0xbdb46ea23e40004dU,
  0xbdb5fbf8bdca4501U, 0x3d84f5a2bac0c8ebU, 0xbdb286533d99a722U, 0xbddb7d10be035c3cU,
  0xbdb10c553d31047dU, 0xbe12167cbdc5a133U, 0xbe16b5d93e1a1657U, 0xbdfe02febc30cda0U,
  0x3d16a2b3bd6486e0U, 0xbd8d085f3de6470cU, 0xbdbb2c19bd97b9afU, 0xbd8d2e383d6d813aU,
  0xbd4e098fbdb565cbU, 0xbd17a311bcf39777U, 0xbdbdd37ebd112d3bU, 0x3d2dde8bbdc81803U,
  0xbd1bd0cb3d5fca61U, 0xbd32a0c1bd036464U, 0xbdc5c75d3d91bb95U, 0xbdd4ad59bcad4b77U,
  0xbce216a03db9e9caU, 0xbd5b624cbcc49020U, 0x3d02dd23bd984013U, 0xbdb33ab43d865c2aU,
  0xbd2e35d5bdfc145cU, 0xbd0252313d87c909U, 0xbde3e9acbcf425feU, 0x3ba9f5713d34a842U,
  0xbe12ac30bc885287U, 0x3cdfaca3bc6c0861U, 0xbdd2d8f43c17505fU, 0xbdfb5428bd0e3a58U,
  0xbd1ddb9f3ded65f6U, 0xbdcbc3f9bbf1f43bU, 0xbde8c0b53d983fceU, 0xbe0d7a2a3d4081c6U,
  0xbbe0aaf8bc602984U, 0x3c6b3e343e1f8915U, 0xbd1b5d43bbb8e22eU, 0xbccb6c803dba78c7U,
  0xbdbeef8bbe1d5f37U, 0xbd70cbf13dc2b7b3U, 0xbd0ecec8be45a76aU, 0xbd0e3dd0bdd38b14U,
  0x3d0624d03d0637c3U, 0xbc88493cbcced532U, 0xbde68a7d3d18330eU, 0xbcccc7c8bd85da99U,
  0xbac19f1a3d174c42U, 0x3c38460cbdd1a803U, 0x3b724727bd31a559U, 0xbcb3ebcabcca2afbU,
  0xbd73d3fbbdc5c76fU, 0x3b2d6afa3da246e0U, 0xbddf795f3c8bcc60U, 0xbcddd74e3d9ce819U,
  0xbdd2e387bd94516dU, 0x3cccb912bd0e5f85U, 0xbdae40dd3c7fec71U, 0xbe0d5a68be1851ccU,
  0xbdaa6f633d4bc3d2U, 0xbe0bc0c3bdebc73eU, 0xbdfd3d133d4b03d9U, 0xbdb4facebdff0f2cU,
  0x3df1e467bd8ac708U, 0xbd4e2f383d2f24e8U, 0xbb14bfa3bdaba6e4U, 0xbd93fe833d69229dU,
  0xbd98832cbc001da8U, 0x3c8ddf333da5d187U, 0xbdba87aabd8d58c5U, 0x3d1f67d8bd562d2fU,
  0xbbf477b13de8a629U, 0xbb60e1663d202ed5U, 0xbda1c90f3be5d0e2U, 0xbd31c802be627a5cU,
  0xbdfc81fe3bd957daU, 0x3dc2d518be08d545U, 0xbe0f9628bccbf671U, 0xbcf94c0ebc98216aU,
  0x3c984ab2bd198ef5U, 0xbcd82a013df0d2c9U, 0xbd78e4f8bd5e7e71U, 0xbc5e70d03d822ed1U,
  0xbdaa3ba4bcf1e23fU, 0xbb6c85b0bdaef153U, 0xbafdc1313df85138U, 0x3bb574bdbdb4262aU,
  0xbc15bee83d6d985cU, 0xbdef6d37bd063852U, 0xbd2158773d9ea85eU, 0x3c79c8d7bd350e56U,
  0xbd085d36bdaa0a38U, 0xbd86f22c3d4116c5U, 0x3d171727bcf31c65U, 0xbd58daa13dd07927U,
  0xbd531c22bdbe2451U, 0xbcc030b53c6bce1bU, 0xbdad36e4be09925eU, 0xbd4f1b08bca506dcU,
  0x3cf4ece43a4723fcU, 0xbd7ff8ffbd4bd50cU, 0xbda919ea3ba7f115U, 0xbd8bb61fbd69f5f0U,
  0xbd96261bbd1745d6U, 0x3d16fc50bd7054c3U, 0x3c4c0032bda38fd3U, 0xbdb2631cbb0c1c5aU,
  0xbe0f3da6bdfcab04U, 0xbd279fdfbb7460adU, 0xbd979b5a3c714b2eU, 0x3b7c3a603da432a9U,
  0xbc0dd29f3cc9d9c4U, 0x3ddb4a7dbd5bd409U, 0xbd1175aa3d807888U, 0xbdee4c4abd18f10fU,
  0xbcd56b673c81d28cU, 0xbd80d728bd80d258U, 0xbd868caa3de9afa8U, 0xbdbfe460bc69b509U,
  0x3d8bc0303c8acc3cU, 0xbccc84c63d5e4204U, 0xbda447e8bd21eb80U, 0x3d59c275bc30d236U,
  0xbda09a1fbcd5b55bU, 0x3daba29f3dd33711U, 0xbe14e124bd79cad8U, 0xbc014a4bbd1c1796U,
  0xbd0523043cb870a8U, 0xbe004b5abde4bbb1U, 0xbd53d4613dca53f8U, 0xbe1c8c3ebd890450U,
  0xbd5b8b413e016f4aU, 0xbd24a23c3cec285aU, 0x3e07d483bdb03d02U, 0xbdeda3a63d7fb2ecU,
  0xbde7265fbdd87708U, 0xbd472b473d89b8b2U, 0xbd6a0e073d6096b9U, 0x3c1d5eaa3d911925U,
  0xbc30618fbd0a5824U, 0x3d8bc386bd015a0fU, 0x3c9213eabbedd7e1U, 0x3ca6247e3d34c06cU,
  0x3ad79346bd99efbfU, 0x3d43784fbd7a23e8U, 0x3df602613bae1514U, 0xbb344c14bd8f9720U,
  0xbc819949bc55b0e6U, 0xbd392a86bd197e8fU, 0xbe0c8b93bdb0cfceU, 0xbd843172bb9e70cfU,
  0xbd8e19f3bce912b8U, 0xbde50fca3d8a590cU, 0xbd92595ebc03aeb0U, 0x3d913e29bce75b9cU,
  0xbdebfbbfbc24fc61U, 0xbd512c1fbd9440a5U, 0xbcb6fdde3df5f869U, 0xbdc7b7a7bdec5fbaU,
  0xbcb825df3df698e6U, 0xbe2527d03cab1c31U, 0x3dc6cf22bdf8f038U, 0xbdf463ba3e250f87U,
  0xbe282321be1c6265U, 0xbd9e1cee3dc74807U, 0xbdcacbaebe03b764U, 0xbd4eff843e24aa62U,
  0xbdd0d1b3bd5fd470U, 0x3e176a26bd685ae8U, 0x3d3d6c74bb523207U, 0xba0d8997bd3bd80bU,
  0xbe005295bb94823cU, 0xbc16ced93c3a2821U, 0x3c902dbc3db9d11eU, 0xbcaf8624bd3682c3U,
  0xbbc6d5c5bcafa6d7U, 0xbcccf8693cd77381U, 0xbdb9d6b0bc90683eU, 0xbdcb1d383e016fcdU,
  0xbe0f3994bd95f625U, 0xbde4ba7c3d9640ecU, 0x3c9ebe7d3b17258aU, 0xbcdcaf80bc15359bU,
  0xbc89519d3e02f53dU, 0xbd5b3e67bd4be798U, 0xbe17374b3d6b93b0U, 0xbd767224be180f07U,
  0xbd82bcd93d6b1687U, 0xbcefdbb5be205e7cU, 0xbadd3e5dbd9a61baU, 0xbda35b6b3c9ab11aU,
  0xbd4c649abe00456aU, 0xbdfb61b93d9e8ebeU, 0xbe1e871dbd2ea835U, 0xbd91bb843d9056c0U,
  0xbe0ce0a1bdce158fU, 0xbd85ee42bc21e3caU, 0xbd851f3a3deddc30U, 0xbd581f713cf273c3U,
  0xbc462b94bad807b7U, 0x3d8a2fd13d813981U, 0xbd5286e53cf11c91U, 0xbcd5f4503d56f623U,
  0xbd1388bf3d30e6caU, 0xbcd847c3bd862a7eU, 0xbc04d694be17fe85U, 0xbd54417c3d7092f2U,
  0xbd90e651bd8f9170U, 0xbd96113a3c0e7864U, 0xbdee64d3bdf6f808U, 0x3e15d818bd620cdaU,
  0xbd8e05713d70f442U, 0xbda93940be0efb92U, 0xbcfbeac43df766b4U, 0xbda0dc0bbcc70347U,
  0xbd23c2be3d8ef284U, 0xbded312cbd91b7c2U, 0x3bf63cbbbdf41af3U, 0x3d1c55643dbe41f4U,
  0xbda5fc33bcea7f8aU, 0xbe47b8793dc9447eU, 0xbdae6789be4e2974U, 0xbe04624e3d45a130U,
  0xbd9f460cbe76a40dU, 0x3d9bfbf5bd273d7aU, 0xbdc36783bd697da8U, 0xbd8b6200bd59f6aeU,
  0xbd2155ee3e1b19b7U, 0xbe34d06abd68456dU, 0xbd6e1eab3dcc66a1U, 0xbd5cd2b7be184c3fU,
  0x3d8e3717bdd6cf7dU, 0xbde2ce263dcc407cU, 0xbdac3bb2bdecfbebU, 0xbc3c40c33ddf1a26U,
  0xbddd6d4ebd16cc9fU, 0xbde5d51f3da54b75U, 0xbd9f96b4bd45e182U, 0x3ce730afbce929b6U,
  0xbd8427f43d907c11U, 0xbd9c13183cb65affU, 0xbcc2a2263dbc6b5cU, 0xbd28d941bd2418bcU,
  0x3d6e25e23d874ed8U, 0xbcd7eb83bd9dcc91U, 0x3caaae8fbd030bffU, 0xbde3fac53db88093U,
  0xbdab41a13bf8fcaeU, 0xbd4bd6113de7ad5bU, 0xbd4ca2413cee6a0eU, 0xbdb9bd513de2554fU,
  0xbda8b87e3d8fa951U, 0x3b11810a3d5f2287U, 0xbc19aa4c3b480975U, 0xbd04bd95bda98b69U,
  0xbcc93661bc905bebU, 0x3c9f1a273cceb409U, 0xbdada5c33dab59f2U, 0xbb4067923a80902dU,
  0x3d88290bbcb155e8U, 0xbd73fc46bbd079c4U, 0xbd8ff350bded8a91U, 0xbd683dd43d3c0157U,
  0xbd6dac23bd213f9eU, 0xbd126edb3d7432aaU, 0xbdc32b65bdf800d8U, 0x3cfa7a25bd3fcd59U,
  0xbd803d5b3cfb32b7U, 0xbd5404f5bdb50c6dU, 0xbc1648843d66efd1U, 0xbd95979abd65e5a5U,
  0xbd56c3fe3d1a9aa0U, 0xbd368516bcdfe877U, 0x3d8621e93d2e1439U, 0x3d0d80223dceae80U,
  0x3d102ecfbc0b48e3U, 0xbc244bbcbbb4aaf5U, 0x3d3ef595bd253cc8U, 0xbd7d86fd3d32ce1cU,
  0x3d5647853d178a1bU, 0xbd204e2c3d43ca8bU, 0x3d27fbfbbdb05c67U, 0xbda2e8acbd8b2503U,
  0x3d04e57abcef79dcU, 0xbbfb7e78bd940864U, 0x3db18e8ebcd527cbU, 0xbdb47973bb8befaaU,
  0x3d60d2f43cb3e04eU, 0xbd1075a83ca0aa79U, 0xbe0799f5bd9267efU, 0xbd650a063d054b85U,
  0xbdbe61c4be097eafU, 0x3bc6aab53db996ebU, 0xbcfe8b07bd84720cU, 0x3c81fffdbe016cb9U,
  0x3bf2b2773d7211e0U, 0x3c561063bd194ecbU, 0xbd61acac3d170502U, 0xbdcd402dbd04f978U,
  0xbcc8236f3c15805bU, 0xbded801abc9e6be0U, 0x3e15dd8cbda6ae4bU, 0xbde05b723d6e5764U,
  0xbdd4d5f9bd9a52acU, 0xbd93f9bd3d4405b0U, 0xbb630a2abcd59cb0U, 0xbda4e2573d8c1b9cU,
  0xbd21558c3d98067aU, 0x3db78b00bd2af2c8U, 0xbc83f7183d3eeb0cU, 0xbda08633bdca30ceU,
  0x3cb7f1533cf37cc5U, 0x3d0813f03d996e52U, 0xbd19f3be3d1b5f11U, 0xbdebb890b8c0d02fU,
  0x3d72d053bcb93f4bU, 0xbdb7154a3d20441bU, 0x3d83a0acbcd9e4f7U, 0x3af06230bcc97aceU,
  0x3cbb9e15bdbbd2b8U, 0xbd934ea33db8888fU, 0xbd0cf7113d39ad13U, 0xbc0a7bfb3c367799U,
  0xbd8ebce3bc2a498aU, 0xbdbba0bfbd25fe73U, 0xbcfeee6c3d4f768cU, 0xbd8791edbd787789U,
  0xbdb80b7b3d445b83U, 0xbce8baeebd46a404U, 0x3d1fb438bc84b8fdU, 0xbcc046833dc6a0cfU,
  0x3c989749bd03fa09U, 0xbd29d4eebd179e56U, 0xbda4760ebd53653eU, 0xbd9531683d7486b2U,
  0x3bdace6fbc16ff14U, 0xbd709856bd2c8a08U, 0xbe1a81493d49e1a8U, 0xbdceaa9fbd76715bU,
  0xbc21033c3dba179dU, 0xbcb25b3ebcf342f0U, 0xbdba41c63d63c6ddU, 0xbd7febf6bd68e4d8U,
  0xbd192d42bd75c3f8U, 0xbd45c7533e0bb7aeU, 0xbd15c243bdd43c2dU, 0x3d984ee7bcac4e24U,
  0x3d7ae527bd88d956U, 0x3db08945bddffc1fU, 0xbd86e7b3bddbbe47U, 0x3d1c22e33bfa7d9aU,
  0xbdca797fbb411a0bU, 0xbc24e6a6be3f6082U, 0xbdbe6a123e0809daU, 0xbd8561c9bcc507caU,
  0x3d20c8823dca28aaU, 0xbe29192bbcd4d91bU, 0x3d45731cbd5c5c72U, 0xbd3f713a3daf5b35U,
  0xbd3deb1f3c2f4986U, 0xbce33ad83d65363dU, 0x3c1ae19a3cc2ed35U, 0xb953c49e3d4ed886U,
  0xbd0539b4bcdcd81aU, 0x3c1abc9ebd32f70cU, 0xbdb54de23cd429d4U, 0xbd364da0bccf19c8U,
  0xbd3a63973a047770U, 0xbe21b159bd326180U, 0x3c607df83e175a36U, 0xbd10e58dbd0f23a3U,
  0xbd1c5168bda2484bU, 0x3d550bd73d0bcafbU, 0xbc8d1f5fbd1c1933U, 0xbd5bdfc0bd336f07U,
  0xbcd2d546bda9cb17U, 0xbddef2b93d08108fU, 0x3e8b0330bd9efc30U, 0xbe1d1b0cbdd42f57U,
  0xbc7b24643d5d7a60U, 0xbdde06c6bd3942afU, 0x3bca8ad23da155feU, 0xbdb4b447bd3699a4U,
  0x3d6409283d82d91cU, 0xbd70b94ebd359ee1U, 0x3dc07d22bdc4a918U, 0x3be4b2d33dbf9497U,
  0xbdbb5355bd2bf836U, 0xbd5371263df8824cU, 0xbdb53f3abd356b63U, 0xbd46999b3dc2a7c0U,
  0xbd6dc3f0bd2bf911U, 0x3ddad557be1596b1U, 0xbd70d9f23e1dd407U, 0xbd972a573d408bfbU,
  0xbbe0e3183b92534aU, 0xbe0515a1bceb3e80U, 0xbde0b6263d0dda98U, 0xbd7cd61c3bdf0d91U,
  0x3db90ac3bd98ccaeU, 0xbd4af9303cc9ad55U, 0x3cd96536bcd28d59U, 0xbde37eac3ce5a86aU,
  0xbd2f55b8bbb2a014U, 0xbced2c193d77ccbcU, 0xbd8abaccbdadd433U, 0xba2dada03d3b0edbU,
  0xbcc35ab3bcf25912U, 0xbd2ba28fbd055dd3U, 0x3b540694bba08c59U, 0xbd0a9efcbde1aa1bU,
  0xbd29f4d73c843c8bU, 0xbcba32fcbd51c279U, 0x3c8943c2bb4a5107U, 0xbd1a22973c9304d4U,
  0xbb92cd9cbe0201c5U, 0x3bf036713d20efc7U, 0xbd9907ddbd0d5a02U, 0xbd62edfd3e123e76U,
  0xbd8b7b363bd5d1edU, 0x3d777de3bd4bb712U, 0xbcab2a963dc4783eU, 0xbcd750a3bb9e3d35U,
  0xbd2793e03c6cb274U, 0x3bb2b333bbe1ab70U, 0xbd3ed3293d372906U, 0xbd3dc9bb3d9ba044U,
  0xbcdc69693d0ede9cU, 0xbceaefd7bb208b5cU, 0xbe13e428bd460c40U, 0xbd5f4ed93c58e747U,
  0xbd8fef163d2a02c4U, 0xbcc19dc9bbc694e1U, 0xbcdb74d53d2f0201U, 0x3dcd0c83bdd9f2d7U,
  0xbd46dda23c43a521U, 0x3afaa5dbbcb22b7dU, 0xbd7a6223bc0d21d6U, 0xbd11e2e63ced0a9aU,
  0xbc42838c3d945cd9U, 0xbd64545abd99721bU, 0x3d2b2440bd86eb07U, 0xbdb9b6f63dbb44b1U,
  0xbd5a07a1bdc1e941U, 0xbbe299dc3d105269U, 0xbc9b2d733b69bb9bU, 0xbb07dda53d43df61U,
  0xbd64531fbcd4725dU, 0xbbdc160dbc5129daU, 0xbd0be1513d364352U, 0xbc71db5ebd3739b2U,
  0xbd74b5e93db7282eU, 0xbdaee8bb3dd96ce5U, 0x3aeaa6483b1ec97eU, 0xbcf8337dbc14e3c6U,
  0x3cb441803c3d2621U, 0xbdd4a0a93c6af2bfU, 0xbdd5c68fbd53b6e0U, 0xbd0ddd4a3d26336fU,
  0xbd459642bd226a7aU, 0xbda3dec0bc56c91fU, 0xbbdf08773d825499U, 0x3d25af45bc976f7eU,
  0xbd1e0ce93dc4bac5U, 0xbd470c0abd841997U, 0xbd3036b03d282117U, 0xbd9007183d4eb845U,
  0x3c018a593d90b1e7U, 0xbd7e7affbb2747bdU, 0x3da10ca8bdbfc8efU, 0xbc7bce3e3d87587aU,
  0xbd8f0c97bcd36f07U, 0xbce256ab3d569ef4U, 0xbc9be1fc3d36c295U, 0x3d8d2b403dc55c14U,
  0xbda1b053bd21ceabU, 0x3d64a700bd0f2208U, 0x3abcfea53d4ca017U, 0xbd8156ebbdddbe9dU,
  0xbd49fe233d6c0112U, 0xbd989b04bd2c1ed4U, 0xbd6777603d907c25U, 0xbd875aaf3c21d94bU,
  0x3ca4062dbc6dbe58U, 0xbd823250bc188fcbU, 0xbd07b0dbbcb46507U, 0x3c636e123ccc1a6eU,
  0xbcbdd184bd565c84U, 0xbd6615073cd57721U, 0x3ca22640bda3574bU, 0xbc94b82bbc7a080aU,
  0x3cb9c6bbbd108aa1U, 0x3debbe043c88d1c1U, 0xbdce1319bd702491U, 0x3d6137ecbddac689U,
  0xbe047a0dbe1d9f2dU, 0x3e13da19bdd67c2fU, 0xbdcd47c6bd4a2febU, 0xbd8cac53bdfbc9aeU,
  0xbe0d788abd759f13U, 0x3c8d16063d74c292U, 0xbd481530bcd63e76U, 0xbd3af6163cd3b30fU,
  0xbd1989ef3d308f6bU, 0x3d54271ebdbb3242U, 0xbc91c5723dc8437fU, 0xbdbf00f5bdb2779aU,
  0xbcebe1c53c612b34U, 0xbdb83888bdd1c5f1U, 0x3cbf246a3e287869U, 0xbccac41bbdeaaa1bU,
  0xbe58cb00bd4fc0abU, 0xbd8de9e83e183f83U, 0xbc07178fbd559061U, 0xbd43044e3d7fd6a7U,
  0x3d080b27be0233b4U, 0x3cf7108a3cac4b4dU, 0xbdf20766bc23003eU, 0x3c809f46bc3a30e4U,
  0xbd1ea6183d02b0dcU, 0xbc73a0acbd2b4c9dU, 0xbd83597cbd103f3cU, 0xbd8bba323d06a248U,
  0xbd30f6223d2a78bdU, 0xbdc54e8cbdd52996U, 0x3b9f0a303c97ca76U, 0xbdbc328b3d40d3efU,
  0xbdf6f79dbd51b9c4U, 0xbc86780e3dac293bU, 0xbda67b073c749953U, 0x3c17b5af3dad016eU,
  0xbd9de2153dfb8715U, 0x3d2abc62bcc3a5daU, 0xbdb4d68c3d7263a6U, 0xbd8f1b2cbdd3cb5cU,
  0xbd0e54613c53c06aU, 0xbd4da2adbcc73ee7U, 0xbd3a58b93cc0fa56U, 0xbd9bcd32bd66a18fU,
  0x3dbd23723c91851cU, 0xbd912ba53d2ed65bU, 0xbde1a399bdb28784U, 0xbd0b6a983da7d651U,
  0xbd9505273da634b5U, 0x3c21d4cc3d3b05e2U, 0xbe046b5a3da232c8U, 0x3d35e74ebdb42887U,
  0xbd4a59963dea8a3fU, 0xbc56c33bbd705da8U, 0xbd43e84bbcd5df55U, 0x3d0f01db3d1d0016U,
  0xbdba4dee3d4dc0fcU, 0xbca92d243c574399U, 0x3db63f1abd3838d7U, 0xbcca977b3d06ea29U,
  0x3ce67d93bd9b1408U, 0x3cc5a5003cb00818U, 0xbd3fa8363c8c3e0cU, 0xbc977ecb3ce800f6U,
  0xbc9496223c6ff388U, 0x3ce8ebde3cd0da27U, 0xbd0115423c78d2b6U, 0xbd851e7fbd8abc03U,
  0x3c0d19ce3d3002e3U, 0xbd14b2fabdb4864aU, 0x3c8536343d537208U, 0xbc83eb8fbce20f6aU,
  0x3d5f01a9bd397439U, 0xbc07fe503ca591c5U, 0xbd9d998fbc44dbccU, 0xbcadad553d32d898U,
  0x3c56d5d3bd88ebf0U, 0xbc8438b13c71509fU, 0xbdb3d9c1bcf7b6f5U, 0x3d9cbebfbd9703f1U,
  0xbda205bd3c26a2dfU, 0xbcf02a56bdb052e1U, 0x3da1fb8c3d695b18U, 0xbdceddffbc78d8e9U,
  0xbdaf141f3d309218U, 0xbc9aefd13d54c610U, 0x3db3b8b3bd990956U, 0x3d36577b3e08a870U,
  0xbc8ded29bd711ed4U, 0xbd40e27b3c85bc2eU, 0xbc8b9870bd0a12b9U, 0xbc19d9afbc024cc4U,
  0xbd17165cbce31b89U, 0x3dbc8c293c739e63U, 0x3cfe890cbccf36a5U, 0x3d6475bebd935d78U,
  0xbd826f003b1c6f13U, 0xbc84bcecbc99eaa9U, 0xbcd89d4d3d14c5a3U, 0xbd2ee5fe3cffd106U,
  0xbd787158bbe80cf1U, 0xbd13e61cbc94e2ffU, 0xba8ccb533cb6acf3U, 0xbe165cf43c380be3U,
  0xbc32569e3d086b7eU, 0xbdd905313baae960U, 0x3cffe7d93c031eddU, 0xbc400df73d78b47eU,
  0xbd8ab150bcfd412bU, 0x3be74362bd999078U, 0xbded2c203d04f544U, 0xbd08c94cbde7d2b7U,
  0x3c5be01f3d56398bU, 0xbdaafc1bbcd52daaU, 0x3dd1f2a4bdde3691U, 0xbdd15fefbb1304efU,
  0xbbab3da1bd5685a4U, 0xbc6340033be7d8ddU, 0xbd8975e5bd8d9ee4U, 0xbda388a23d027d3aU,
  0xbd673254bc4e669fU, 0x3ca61c97bc5c2be0U, 0xbde7c243bc620f66U, 0xbd7d399bbd42c1b1U,
  0x3c29475b3dcc8cb1U, 0xbdacc7f6bd710a00U, 0xbdc71ea03d8e1156U, 0xbd437fd03da7da85U,
  0x3d3d91c2bc4d5f37U, 0xbd9e941f3ceeb8bfU, 0xbd0e24bbbd240df1U, 0xbd337b5d3c9357d9U,
  0x3cd300b5bdfa6a09U, 0xbb7f5a203c51cd7fU, 0xbda721afbd97e483U, 0x3d1abf1dbb5dd130U,
  0xbdca0e933bcf796fU, 0xbe0eb36fbdae5d47U, 0x3d814b6fbd32e6e8U, 0xbd045650bdb9ea84U,
  0x3d12f5e83d8814a9U, 0xbd8b2201bdcb02f8U, 0x3d64f7c7bcf78263U, 0x3d2d9baf3d4b5b93U,
  0xbd0dce98bc8c32a3U, 0xbd7583fdbbcf34bfU, 0x3ce24b77bd2f9734U, 0x3d5ef2e73d49af94U,
  0xbd3970bcbe04dadcU, 0x3ca5c01dbd0408b2U, 0xbe088073bc8dc35aU, 0xbcc7de01bd14367bU,
  0x3d7a19713d5d0e26U, 0xbddbb88dbd4a16ebU, 0x3bf9fb933d370575U, 0x3d27d4edbd81aed5U,
  0x3db00378bd842221U, 0xbd69b72f3dbf7d91U, 0xbd891053bd826946U, 0xbd98bd8a3d4e3d6aU,
  0x3d26fe37bcea3a1dU, 0xbd4e26653d5960f2U, 0xbcde1b0d3d498492U, 0xbc71117bbd96be77U,
  0xbdd5a82d3d2aebd6U, 0xbde70eccbdb8a689U, 0xbd893b453d9b89dbU, 0xbd2f7816bd4c41d4U,
  0x3c02fb463d088e6aU, 0x3cb0b209bd519038U, 0x3d5c436bbde9085eU, 0xbd935a583ded59e4U,
  0xbcc50d1f3c937cccU, 0xb9db36e43dd1b035U, 0xbe4f062c3d0d17f6U, 0x3b905c363e0175e0U,
  0xbdede7793d5f4bf0U, 0x3d9f79f7bd1cb7e8U, 0xbe227948bbc4f73dU, 0xbe18bf60bcb37219U,
  0xbdbe0d683ce6aeafU, 0xbe01824e3db00d10U, 0xbd8d46503dcba8d8U, 0xbde34bb6be016a2cU,
  0x3da6423abda04a16U, 0x3e5d69373da15788U, 0x3e25c0bd3d3c4035U, 0x3d2834dbbd5601afU,
  0x3e0c83ed3e0420f8U, 0x3d581c9bbe05bbefU, 0x3d51a4c53d801e7eU, 0xbd3ad1f33e46647fU,
  0x3e1bba4fbe0f9afaU, 0x3e16c990bd201ac6U, 0x3e0c4e0dbd5e00e5U, 0x3dffb0063ce24b01U,
  0x3dcb1f5bbce40fbcU, 0x3d1e15ba3e0bc8dbU, 0xbd921009bd5d2982U, 0x3e2b5fb0bc80e77eU,
  0x3cba9604bdc0f703U, 0xbc8d833a3c158763U, 0xbba2779dbbf954a4U, 0x3c00acdb3c94df3cU,
  0xbccf92643e088d14U, 0x3d652b4b3dabc182U, 0xbe367f0b3d6d3b72U, 0xbde7bed4bdfeff51U,
  0xbd7850b13da3cc3cU, 0xbe1557e8bd949da4U, 0xbd2d79a13e49e496U, 0xbdae9e463d731221U,
  0x3d605ed2bcda1e14U, 0xbe128e073d4710f7U, 0xbdb7edc8bdf4ace9U, 0xbc3f0a523d8d37dfU,
  0xbdd4e449bd348657U, 0xbd5d89a93d9b8dfbU, 0xbde426bcbd30b63bU, 0x3d87ddfabe6462c6U,
  0xbdc6882f3e96023eU, 0xbdb2f2fcbe110820U, 0xbe2eabac3dd25472U, 0xbe2ba8dabda4e076U,
  0x3c60a4af3d7b9e4cU, 0xbe2656cebb0ef096U, 0x3c9e5656bdb34b49U, 0xbdc378ea3da81c04U,
  0xbd27ba33bde1c568U, 0xbcd9f2823e12d6eeU, 0xbc340eac3bbd8d1aU, 0xbab821793e47b2fdU,
  0xbd31eb1f3dc5b953U, 0x3e002d17be2a3189U, 0x3ba0beda3dc64af6U, 0x3ddf37d23cf95b76U,
  0x3ce6a68cbe55af42U, 0x3e023c2a3ce23230U, 0x3ddb98a8be013f49U, 0x3deeba8dbd86fa58U,
  0xbde093cb3d27d853U, 0xbe3822b5be364ca2U, 0xbe4c8b67be2c0b01U, 0xbd243d443d4dec50U,
  0xbe2eaad5bdf1a0fdU, 0xbd02d82e3c95b12dU, 0xbdb001633c23be69U, 0xbd78e1663bdde327U,
  0x3e3516efbcb1dd4eU, 0x3d200ed73d41f097U, 0x3e1137babd098cb9U, 0x3e0882403d227455U,
  0x3cfe50b2be032b8bU, 0x3e4bcd733aaf143dU, 0xbc0623b53deb21dbU, 0x3dab69dabd5976feU,
  0x3e41d1c03d8f51e7U, 0x3dad0b09be0827ccU, 0x3e251fbe3d87ba49U, 0x3dc595a5be42c599U,
  0x3d092cf73e0a8e92U, 0x3cf5d6ea3d120b95U, 0xbe2978d1be0155abU, 0xbdc1d098bdb43c69U,
  0xbd96236b3d681f51U, 0x3bc6f8d5be064b6aU, 0xbc1eedf13dbd725eU, 0xbdb67ff2bd5acbbeU,
  0x3e21ae15be45fde6U, 0xbdfcc7d43dd4d3ccU, 0xbdc5cb44bcde5d3cU, 0xbdc5907b3d33e164U,
  0xbdce3d8cbdc445aaU, 0xbcb3fcdd3dcc2a9eU, 0xbd7edc15bcfcbaa9U, 0x3d976322be64b98aU,
  0x3d9592f43e03d542U, 0x3dc284ad3e69699cU, 0x3d78546fbe030bceU, 0x3dee04993d85967fU,
  0x3c0fea83bd7e48efU, 0x3e1075ad3c8956b1U, 0x3c28f7493d0fca29U, 0xbe57e51abdaaa673U,
  0xbd9d5a6bbdfe442fU, 0xbdcc48333e1d25faU, 0xbe6aca24bd993d50U, 0x3d80d56c3d5134a7U,
  0xbde5a46ebd361fa9U, 0x3db41f42be5817a5U, 0xbcb286fa3df8b5daU, 0xbe292011be0a55c8U,
  0xbbc034eb3ccf2385U, 0xbd25f973be1530faU, 0x3db1c21e3da1d21cU, 0xbe333061bda83a88U,
  0x3e1ade1dbe05d65fU, 0xbc9ae74d3dc9a2bbU, 0x3e56d04bbdb844f6U, 0x3c0a8d7bbdfbc296U,
  0x3e96856f3db51d92U, 0x3c0bddd4bde02137U, 0x3df72e2ebc435571U, 0xbe0de1543e961291U,
  0x3e4050c8be07d13aU, 0x3d437c463d5e6fd9U, 0x3dc9197dbd2684e8U, 0x3d29f3743dbfca57U,
  0x3d61f431be2e2083U, 0x3e5208cd3d873581U, 0xbd0b0d883e111370U, 0xbe0e1430bd1e0373U,
  0xbccb7543be33d233U, 0x3dd5ffd23cf7b620U, 0xbda6ebf9bdaa4282U, 0xbdc467283cdec564U,
  0xbe3515c0be199039U, 0x3dfb12eabe06bec0U, 0xbda312a53d35298eU, 0xbe182893bcbc267aU,
  0xbd8977af3ddf4fe0U, 0xbda93987be1e8bb4U, 0xbe1522123e1af572U, 0xbca758b4be03f8d7U,
  0x3e16f85cbde804d8U, 0x3cb31f483d93111cU, 0x3d83e05a3d764982U, 0x3b185622bdb2ff52U,
  0x3e16d5393dd12dafU, 0x3e2532fdbe814b81U, 0x3df5ab673d54680eU, 0xbd04bc213dd84218U,
  0x3df53780bd2e6d30U, 0x3de506cd3d39591fU, 0x3d8f86c3be0c9a7aU, 0x3e34b99d3d715bceU,
  0x3db22d69be4dc305U, 0x3cbab13abd528165U, 0xbd9e2b403d595f38U, 0xbd1cac01bddfe92dU,
  0x3db65ccf3d48e5b8U, 0x3dac5d90be4d1d21U, 0x3e3d581d3d81c1bfU, 0x3d1842f4be14e3faU,
  0x3e0a1bfc3dc78d4aU, 0xbda4974c3d8eec8aU, 0xbdf1f1903cf536e6U, 0xbe4d068dbcaa096aU,
  0xbe404a193e47c488U, 0xbe292522bd1c9424U, 0xbd16460d3e0e6e86U, 0xbdd9d64ebd745640U,
  0x3e07de20bae58f39U, 0xbd597adcbd028abcU, 0xbe3c04c4bcc2daffU, 0xbdaaa68c3df26f2aU,
  0x3bd298cbbe0cb414U, 0x3be9839e3d548299U, 0xbddeb61dbe0cea6dU, 0x3ca83937bd86a666U,
  0xbdf174af3d5f97bfU, 0xbe1c791abe33832cU, 0xbd955e363e0662c8U, 0xbd7b5abdbd635f6aU,
  0x3da5a95c3aeb6778U, 0xbe401308bd6230e0U, 0x3de1ccacbe02ae32U, 0xbda78abf3e1f2d43U,
  0xbdad2f34bd1017f2U, 0xbcd4acb93ddf94e5U, 0xbd3438d6bdeafca2U, 0x3b0ce3c53e15a00eU,
  0xbd359ae6bdd1b0e6U, 0x3dcfd18bbdf6071aU, 0x3dcafc1cbc5d6a94U, 0x3d880db03db217e4U,
  0x3b37e6ffbdc99115U, 0x3e0e2d1cbb8db8a4U, 0x3c89cac4bd9fff55U, 0x3dbb1b693e0f7528U,
  0xbe52b2e03cf15673U, 0x3df2ba5fbe6208e4U, 0x3e687cd0bc92a611U, 0x3e46bc79bdccd9aeU,
  0x3e597a9b3d555c78U, 0x3e0f481dbe030a1dU, 0x3dc699723de1f389U, 0xbdd0d6ae3e4a8871U,
  0xbe12ffa6bdb50ec3U, 0xbc472b73bcf42bedU, 0xbe0367233e0becfdU, 0xbd92d060be15f4f7U,
  0x3d564c8e3dfa701dU, 0xbe093b1cbd3732b2U, 0x3dd4adefbe139482U, 0x3dc6e3393cb477e7U,
  0x3d43e0d93d46626bU, 0x3de834bfbcc1b930U, 0x3e7cf58a3d72d7faU, 0x3df8075ebdf5110fU,
  0x3e41777c3d624159U, 0xbe122a103d06a215U, 0xbe04711ebdf709f7U, 0xbd37ac78bdfe6990U,
  0xbda41d2d3df83adeU, 0xbe4a22eebd2c71e9U, 0xbe1f5eae3e3188e1U, 0xbdc8c248bda10b3bU,
  0x3df7d8bcbd4a2d0aU, 0x3dd7ec51bc12fdb5U, 0x3dd8bafa3cee01caU, 0x3d1acc8fbe2c6cd5U,
  0x3dd82652bcc7d685U, 0x3e3d22b0bd1bc9beU, 0x3d7869893ce411d6U, 0xbdafe5363e2672aeU,
  0x3db69e9abc8997b0U, 0x3c5177493d866ff1U, 0xbda1989f3d8f3ab9U, 0xbc43c73bbd25becdU,
  0x3d630389bd7d26deU, 0x3c636fd03ceb6745U, 0xbbe1d394bd49cbcbU, 0xbdb8d268bd7e8c6cU,
  0xbe12337cbd830efcU, 0xbdf2048c3dcf5a70U, 0xbdb68e86bcb8ba69U, 0xbd0d37433db9eb99U,
  0xbe367ceabe00d4abU, 0x3d72a303bda97605U, 0x3d39e9ff3cdb65e5U, 0x3e21693abcef412dU,
  0xbcac45f6be157e1bU, 0x3de3d3183da0d75dU, 0xbbc7ef51bdcd3340U, 0xbc1ea63abc9c07e2U,
  0xbc80cb1e3e143ef8U, 0x3dd04185be8e8e24U, 0x3d6d24783de437a7U, 0x3db0e054bdd07985U,
  0x3e3dde303ca3d7a2U, 0x3d756ed9be1a7cccU, 0x3d3e33ca3dfa043fU, 0xbdc75db43e22c939U,
  0x3e37d639bdd5c825U, 0x3ddbc2d5bd62f626U, 0x3e55be50be212caaU, 0x3e32aac43da2a3deU,
  0x3d400b60be04dd34U, 0x3d1a6a6b3e1ca654U, 0xbd5552313e03c4f8U, 0x3d08661fbd67f5b7U,
  0x3d2f0baf3e1ca2a5U, 0x3a839a6bbe3cacc1U, 0x3e033950bc83069dU, 0x3d6ede2fbe201410U,
  0x3d27fdd4bd085f69U, 0xbe3745da3dd7f210U, 0x3e56ed84bd3c3bbaU, 0x3d91952e3da578b3U,
  0xbd490c88bda56f47U, 0x3df060573d973b40U, 0x3dc90229be05eeb4U, 0x3dcb09a8bd940f5bU,
  0xbd0d1b263d593334U, 0x3ca46001bd1cc447U, 0x3e3b25f83da592afU, 0xbb449826bd640c2dU,
  0x3dfb06983ceae457U, 0xbd2f22ecbe05ed2bU, 0x3d5eee10bc221226U, 0xbdac84953e710907U,
  0x3d9bc809bdadb7aaU, 0x3e2af7663d73b606U, 0x3e12005bbd81e39cU, 0x3e45baebbd868244U,
  0x3d1674f0be0055deU, 0x3e055f263c203a84U, 0xbdbe76e43dc62b02U, 0x3c3a0540be131861U,
  0x3d1ad3f73e5557d2U, 0xbda55ad5be315eb6U, 0x3dafdc983b5c8706U, 0x3b6e4bfebe11dd3fU,
  0x3e4a7d51b9faab66U, 0xbdfa52663dcfebadU, 0x3c9a08eabda43afcU, 0xbdfb85b4bcd428e0U,
  0x3def3e3a3d72e5a0U, 0xbdc58f39bdad0b73U, 0x3d327a423e44aed8U, 0xbe14a11cbc817ff1U,
  0x3d6fe96fbde3a69dU, 0x3cb00c2a3dbc6ac0U, 0xbd55f63cbd81e23aU, 0xbe400fc23e206087U,
  0xbded7545bd2cde56U, 0xbd02d0343e174955U, 0xbda060b4b98e0ccfU, 0x3d6180edbc0f26a6U,
  0x3ddd09483e1a8e31U, 0x3d7b7cb13df428aaU, 0xbd04fc5cbda83c2bU, 0x3c4275953d9ae5fdU,
  0x3a951a2fbd5d46c1U, 0x3e13c6c03dcaf5f0U, 0xbdb49db43dbdbb3cU, 0xbd4225cebdc0ccfeU,
  0xbd267375bd98c7d7U, 0xbe2fb3873db35aadU, 0xbe02a053bdc02c45U, 0xbe0c09053dffae05U,
  0xbe2cf50fbda07364U, 0x3e308652bd6f0867U, 0x3e40cbb93d8a3e0cU, 0x3e0e20ee3d9758f0U,
  0x3cff077fbe177386U, 0xbd157466bd93bc79U, 0x3ca40e4cbd3da967U, 0x3d2dd6443d5c45efU,
  0x3d683878bdc8210aU, 0xbda7f7f43d8c5d56U, 0xbdffa033be36ca71U, 0x3df406d03e2daad6U,
  0xbda0f1b0bdab4af8U, 0xbce55cd2bcf0cbe1U, 0xbe366e3bbbd96a6cU, 0xbcb14475bdab3289U,
  0xbe1806893e199efdU, 0xbe139c9dbe2f61fbU, 0xbe8589263dec54b2U, 0xbdf5f93bbe3d01c3U,
  0xbd29ac943e0342d5U, 0xbe107831be2a08f1U, 0x3da9e80dbc905209U, 0x3dde34d43c2b5b64U,
  0x3e2dd0043d26730cU, 0x3be377dcbdc11337U, 0x3e45c39e3e1470d0U, 0x3df77e65bce9220aU,
  0x3e19d0083cd7970fU, 0xbe38b65b3e1daca9U, 0x3d2c3911bd563adaU, 0x3dcf60e13dcf8049U,
  0x3c276a2fbdcdf365U, 0x3e0c98cabd1607b0U, 0x3b8c53e1be00e80cU, 0x3dc433e3bbcee288U,
  0xbd813e5d3d995cbbU, 0xbe167ec9bd49c6beU, 0xbcdf56983cd83493U, 0xbe1e36173def6b63U,
  0xbe3bdf853d2a7d43U, 0xbdca3ba53e540225U, 0xbd9cd342bcad792dU, 0x3d2f3609bdb39f06U,
  0x3e2419a43d549fe5U, 0x3e0166e7bd9581c9U, 0x3d2cc768be0945aaU, 0x3e5ee70f3d785a15U,
  0x3de0f742bd950cc1U, 0x3d4c3edb3c733980U, 0xbda711d23e25a169U, 0xbd3e2d0bbd7ab908U,
  0x3ddbee66bd4df99fU, 0x3e7b68d4bd941847U, 0x3ea478ee3e1a38dfU, 0x3e19bea2be80f54aU,
  0x3d3751423c07da52U, 0xbdc7afd13e11a259U, 0xbdccea80be3f3529U, 0xbe0610e2bcf73de5U,
  0x3badc6ed3e22f6cdU, 0xbd2701d7bd614439U, 0xbdecc1673d6335d6U, 0xbe29e87fbdeb42d2U,
  0x3e39b03bbe2b384fU, 0x3de6232d3ddedc42U, 0x3ddc50113d44182aU, 0x3db33314bd2c766fU,
  0x3e386cf13d4918a0U, 0x3e0a9c91bdad55c1U, 0x3e2fd3e13d866c49U, 0xbbd548543d3c8f2aU,
  0x3c82d10fbd8264f4U, 0x3e5978713e1eca17U, 0x3c9003babcd8c27fU, 0x3de9b7f63e01ae51U,
  0x3c2bb135bdb048a8U, 0xbcbf752cbc470a07U, 0xbdfbf6173e4f4c49U, 0xbd3d01f1be328189U,
  0xbdc8e093bd3ea970U, 0xbb5dd38a3d8f5225U, 0xbcdef1f33ccf3f8cU, 0xbdcd78ff3e05c0a4U,
  0xbd4dd8283be94253U, 0xbd50deb9bbf8a99cU, 0xbd1d66083c7862e7U, 0xbce4f281bde3672eU,
  0xbdb10c513b943c0bU, 0xbcc10660bd288ccbU, 0xbbd8a49a3dc9c7faU, 0xbd8277acbd395e1dU,
  0x3b56f247bc5022e4U, 0xbd48964c3ccba808U, 0xbda68599be41678eU, 0x3bcd52cc3dd511a7U,
  0xbe05eaadbe0d5ea8U, 0x3c2d75173dee7721U, 0xbd0e47d83cb7aed2U, 0x3d9c6d0ebd5c7386U,
  0xbe3c08193d85171bU, 0xbdcf0e00be13a3efU, 0xbd2e3792bb86dc68U, 0xbd85a213bd721c78U,
  0x3d21682e3db6dc19U, 0xbe1aca4bbceb1462U, 0x3d949b523d03cdafU, 0x3d24f5a43ddfeaf2U,
  0x3db80f32bd3eb7eeU, 0xbd8a2b8cbc99c763U, 0x3d4239e4bcb833e1U, 0x3d3f2c04bc57c850U,
  0x3d30449c3de5dd66U, 0xbd99c9ef3da6a8a7U, 0x3d58c2d1bda24e76U, 0xbd71a558be0b236cU,
  0x3d379bd4bb62fc80U, 0x3a6045f53cd2b7aaU, 0xbc1d7f1f3ca37346U, 0xbd55d7f3bddbf165U,
  0x3dd6dcfc3d85d61cU, 0xbd334159bcc74019U, 0xbd974483bd7e9cacU, 0xbd8ac78c3dc5bff5U,
  0xbd8f27b8bdb9a544U, 0xbd0b064f3e30572aU, 0xbe1d78eabc9d044fU, 0x3dc78756be107fb8U,
  0xbcdbcdb63ddf9871U, 0xbd668707bdd51344U, 0xbd92fa4b3d48595dU, 0xbe3301e7bd3bb1f4U,
  0xbc9e9d063ccd6ec7U, 0xbe2980eabdca0733U, 0x3dcf466ebe0dc2beU, 0xbda208fc3c8b9fc5U,
  0xbdbd88bdbe13dfd8U, 0xbd85971f3a8e71f9U, 0x3c19934cbcab1705U, 0xbd7e02c43df0bfdeU,
  0xbe20b3a2bd19a2ffU, 0x3d89d78e3ca18a55U, 0xbdecf8463d934499U, 0xbc49ac18bc3cf09eU,
  0xbd3321c33dd29a41U, 0xbd909058bcffd52eU, 0xbd6e549e3dc8caa2U, 0xbdb642943c8484d5U,
  0x3c309e8ebdaafd33U, 0xbcb512083d539b1fU, 0xbd65b3abbdede6e7U, 0xbdd21a763cfa6744U,
  0xbdf0166abe12fa19U, 0xbd5814af3dc2d2b3U, 0xbdd78f53bcc51500U, 0x3d384031bc1e83d2U,
  0xbdd1fcdb3d9e4743U, 0xbe1a861fbddf2e1cU, 0xbd5fa4643c2a481bU, 0xbd805f4dbda49b5cU,
  0x3d28ea313e08ac74U, 0xbe01afbfbdb5ed3bU, 0x3deeb066bdbf3a9fU, 0xbcd7ee343e0b0b36U,
  0xbd111d493b659ef4U, 0xbdc431b13cb4fbc5U, 0xbdce9152bd616fb2U, 0xbd1524a83d1ea65cU,
  0xbc947390bdfb85f7U, 0xbd21e664bd89b405U, 0xbe38fedd3d4a4512U, 0xbe0c28cfbdb17351U,
  0x3bbefab83e104184U, 0xbe129303bc4a381bU, 0xbe13ff673dbcf3bcU, 0xbdea1115bbfed5ceU,
  0x3d4ed6973bdcab2cU, 0x3ca7ab853db84e48U, 0x3d27899abd896235U, 0x3c89d076bceb583fU,
  0x3c2f7fe3bdf46936U, 0x3d9f6b18bd27707cU, 0x3bb5f378bdd3e487U, 0xbce54901bc97648dU,
  0xbddd52febd4ff7d4U, 0xbd8bd2fdbde35d18U, 0xbd7c74d23da00a2aU, 0xbd0d94e23da6008aU,
  0xbd7570433db3f937U, 0xbdf16f06bd633b59U, 0x3da9ab86bd56dadeU, 0xbd42698e3d90f33cU,
  0xbdcb4e923d53e669U, 0xbd9b5e893d998ebcU, 0xbdd9fe2fbdaf6b3cU, 0xbd48ff163d3c58b6U,
  0xbd9a1daabdddc536U, 0x3d83c9d0bd77a268U, 0xbe0464033d9cb24eU, 0xbe2ba5573c13b120U,
  0xbd872fd33de60e00U, 0xbe3e62b8bd87d79eU, 0xbe09bd653e3eaa17U, 0xbd97d0bfbd3492b5U,
  0x3dba7d19be2bd531U, 0xbb298b6e3e430e38U, 0xbcad1297bdbac4fbU, 0xbd2163773d848c21U,
  0x3ace3c4dbd5ed062U, 0x3d1113de3db60a79U, 0xbd25f85abd49a55bU, 0xbd12ea7dbe004cdeU,
  0xbd856e133d5f1146U, 0xbdef3e26bd986facU, 0xbd02c1bc3d9fbe72U, 0xbdf5bcf4bd6bd9e6U,
  0xbcf746693dc54599U, 0xbe105c32bd7884d3U, 0x3dda696dbda29655U, 0xbe1cf0593d8b6645U,
  0xbe15db17bd39d360U, 0xbd284aa03db8a006U, 0xbdfa48e2be01cd2bU, 0xbd48124c3d7b149aU,
  0xbe109d01bd14601eU, 0x3dc89927be0ba87dU, 0xbdfbf9d13d9484feU, 0xbe1e983eb89d7a6dU,
  0xbe0a61243d851456U, 0xbe3241d5be21abd9U, 0xbdfbafb03e235e87U, 0xbdc6599fbd7ba2edU,
  0x3dfd92fcbe21ef9cU, 0xbd386bbc3de01d7cU, 0xbdb16b9fbd7ca40fU, 0xbdc38a0e3d45fa7cU,
  0xbde0d07cbd229e2aU, 0xbd77d2173dbf4b8fU, 0xbdce64cebdbb1edaU, 0x3cecb581bd81d663U,
  0xbbf93f413d6c0164U, 0xbdd250b2bdc62af2U, 0xbd4c4ec1bc18ea2aU, 0xbdbba4adbdb23e75U,
  0xbd72bcad3dfa19aeU, 0xbda8e468bcc9363bU, 0x3d4c552dbd661dc4U, 0xbdaec8db3d93a270U,
  0xbdbc3eefbe3f3e76U, 0xbd9938e23e1204a4U, 0xbddab85ebde4e954U, 0xbdf0dd1a3df451b8U,
  0xbe469c1dbcb842a3U, 0x3dba83fcbdbf29f0U, 0xbd068d183e055366U, 0xbda6394cbd928f5fU,
  0xbd9230b9bc922d00U, 0xbddeb1ebbe01e32dU, 0xbc51290f3c30dceeU, 0xbd87c30bbde580a9U,
  0x3d8ebd35bd116044U, 0xbdc98b1c3d9bdf3cU, 0xbe497784bd3a4bccU, 0xbd7bc4ee3cea35dcU,
  0xbdda693cbdcd3a81U, 0xbd07e5f4bc7efad1U, 0xbc57a1b23c989592U, 0x3d9a9435bdeaf52fU,
  0xbd6b246a3df42843U, 0xbd5183a9bc6efdefU, 0xbd5f4ab53d834eafU, 0xbdd21fbe3992f577U,
  0xbd156db63d81c599U, 0xbd856ddfbceb967eU, 0x3c9b29fcbd560d77U, 0xbde2aa323dbcc3d7U,
  0xbd8e9258bdf08e46U, 0xbd34f04d3ccd4d7eU, 0xbdc3fc83bddb7898U, 0xbce5c8233d36ff92U,
  0xbd184c83bce989deU, 0xbcc44291bd4bdda1U, 0xbe0679b43d5cd892U, 0xbe1b5379bd2dfc07U,
  0xbddfe6663dabd25cU, 0x3b44356d3d9f058fU, 0xbccd62723e119355U, 0xbd699b553d0bb7f9U,
  0x3ce8ef7dbd955ec9U, 0xbdb5b1513e06343cU, 0xbd761709bd4b4f95U, 0xbd2ddc0f3df06131U,
  0xbe0c5481be434283U, 0xbd8b0d1a3d797842U, 0xbd152a0cbe1bea9cU, 0x3bb53460bdec6e6cU,
  0xbcc9e1993dd14449U, 0xbd4f6db5bd99b244U, 0x3b1c9e1e3b7506f8U, 0xbd8a9dd7bd176f22U,
  0xbd2e2e293d90ed95U, 0xbd90110e3d18ce6fU, 0x3d4a8925bdbcde60U, 0xbd2a22773d55a4a2U,
  0xbdcf0fa9bda8f4eaU, 0xbd850d0d3c7f3b1bU, 0xbdd3cc60bd280baaU, 0xbca259463daffe36U,
  0xbde7b0c0be00227eU, 0x3d58f2a0bdc44e81U, 0xbd987e7d3ce28976U, 0xbe20353fbd9d0c6bU,
  0xbc8a4d083d9c32b6U, 0xbe128127bdbbe9ddU, 0xbddda5613d4e79feU, 0xbdb2af38bdc430abU,
  0x3d9c8d42bd614b9cU, 0xbd949eed3d719bc1U, 0xbd48beeabd554fc4U, 0xbdb894bd3d0ffd36U,
  0xbd58e962bda53bc2U, 0xbccfd6ce3dcdb10bU, 0xbda084bdbdd111f0U, 0x3c2c890ebd01010bU,
  0x3b10f39f3d2e8260U, 0x3d153609bd39aaf1U, 0x3cf0d784bd8eae9dU, 0x3dc7cbfebd2b87cbU,
  0x3c0ff1f03c9e56fbU, 0x3d9bd9ed3ce28849U, 0xbc7ef6a53ce0af0aU, 0xbda92b45bcb1d0cfU,
  0xbe0608ee3b466f01U, 0xbda1b9013dffddb3U, 0xbe093e36bdb73564U, 0xbdcec6c33d8e2462U,
  0xbdd32491be13feaaU, 0xbc310811bda5851dU, 0xbde603eb3dc57360U, 0xbd79e316bdcbd188U,
  0xbcc439493de8bb3cU, 0xbe0de654bd82e546U, 0xbe09e4593daf8591U, 0xbdf552c4bd22ccb9U,
  0x3deb0efdbd4622a6U, 0xbda990893d994442U, 0x3cbbcc86bdadc8d3U, 0xbdda30f83cc214efU,
  0xbcf04473bd5d9ea4U, 0x3d2428b53db75e59U, 0xbdf554e1bdf6e327U, 0x3c29b88dbce0dc7eU,
  0xbd925b53bd2c475dU, 0xbd8bc871bcc6f83dU, 0xbc8ef06c3d9a3368U, 0xbd80a567bdd1b88dU,
  0xbcbd59723ca7df9eU, 0xbd4e546dbe2d8d5dU, 0x3d261664bdab29baU, 0xbd88e9ea3d416909U,
  0xbd95d38cbb51d666U, 0xbcc486583de62066U, 0xbd979891bd0940d6U, 0xbda428f13ce20390U,
  0xbc884ade3a015578U, 0x3ce74dc2bd28d1d3U, 0xbd25d6463d6cefe4U, 0xbd6968fcbdbf1becU,
  0xbbb01d703d135c9dU, 0xbd18e7b63a1db169U, 0xbd96d0553d6302acU, 0xbda3dc64bd16d3cdU,
  0x3d1cc288bc8a1194U, 0xbdde6a523c95b7daU, 0xbd439dadbc9ae143U, 0xbdc7bb883ccefad9U,
  0xbda3f653bda7a118U, 0xbc8180953d6b96ceU, 0xbde8d9e93c85350cU, 0x3dfaa8acbd8b5794U,
  0xbe293a5c3d75caeeU, 0xbdce49b3bd968178U, 0x3d0d6f2e3d71d761U, 0x3b5b38f7bd887a1dU,
  0xbd91a0ea3e116107U, 0xbc21a4c4bd79e817U, 0x3dfc6aeabd90abd8U, 0xbd3b28933c2f36d8U,
  0x3ad08b36bda9bc09U, 0xbd5e78243b2faa6cU, 0xbdc946aabde698f5U, 0xbdecb3c43d6cf2e9U,
  0xbd5a108bbdf11239U, 0x3cba18f7bca4dd30U, 0x3b25dc603bca3978U, 0xbc555530bd371a08U,
  0x3d1594673d07273cU, 0xbc93de9bbd8cac2aU, 0x3d1719ce3cbc35dcU, 0xbd8cc259bddd7b19U,
  0x3cb0a22ebcbf1885U, 0x3ce059f23b386253U, 0xbca477ccbdc5dcc5U, 0x3b63cad33d03f554U,
  0x3bb3604abdc3ed3eU, 0xbd2ada4f3c0abbe9U, 0xbcbe1edabd96155dU, 0x3c9efb023a78a7c4U,
  0xbdf6b92f3cc430e5U, 0xbdbbcba5bcd054e2U, 0xbd3f5ec43e1dfe6cU, 0xbc3405ecbd296e60U,
  0xbd24e36f3d4b9943U, 0xbdecc6c7bd070401U, 0x3dc541bebd4fbef6U, 0xbd5041293e0a4e0eU,
  0xbe149220bdd295caU, 0xbdb492c43d70900fU, 0xbc7b046ebdb2a76aU, 0xba36bcae3e0211b7U,
  0xbc18a1dcbe093a56U, 0x3dcb4225bd3d7d67U, 0x3c8637793da4d01fU, 0x3d08029fbd8a5064U,
  0xbc948d763d66d516U, 0x3d199b3f3c36eeafU, 0xbdd4b9893d4aafbcU, 0x3baa08a1ba91ef82U,
  0xbd9d39d13c958e22U, 0xbdb7db43bd1f7e37U, 0xbda7dfdd3deccda6U, 0xbe04fa753df22a8bU,
  0xbda64ae53d0aec6cU, 0xbe23011c3dd4a738U, 0xbc7e1f3d3d74b071U, 0xbba9f60cbdb2a901U,
  0xbda4eed93db9ff16U, 0xbdbd254ebdc286c1U, 0xbe1416c23e1864c9U, 0xbd4a5455bdc3172aU,
  0xbde35e783d2eb04dU, 0xbd9cac78bde309beU, 0x3c3e3e2abe1687a7U, 0xbe13899f3dfe50f0U,
  0xbda98b1dbe274abdU, 0xbd9fb0fd3de0aeb4U, 0xbe136106bda0db71U, 0xbd74c9fc3df4cebeU,
  0xbe16aa3abd939ef2U, 0x3dbc0697bdcb6e83U, 0xbe0666c93dda5d69U, 0xbd36099abdd43d7bU,
  0xbcdc8f343d9f984fU, 0xbda53064ba6d7294U, 0xbdaeb07ebb52da60U, 0xbd5867b3bd79d95dU,
  0xbd879992bc811f26U, 0xbc9941963d86411fU, 0xbc419c2abe4efe83U, 0x3c7b208b3d27bb6fU,
  0xbd464a81bdcc5e45U, 0xbd018fc53ca55c2aU, 0xbdaa6b19bc15e2e1U, 0x3d5ea4b4bdf529ceU,
  0xbdc2351a3d49a213U, 0xbcbcbe02bdd63991U, 0xbc7b37c43d1a3071U, 0xbb2d5fd5bdd8ffaaU,
  0xbd0bc2ad3d933128U, 0xbd05363cbd774045U, 0x3d09b74dbcb5cae6U, 0x3c29a22c3d0e387eU,
  0xbd2b38bfbd3ea375U, 0xbdeb96373d9ecabfU, 0xbd880b43be53d847U, 0xbdb379df3d0fd2efU,
  0xbd4c2df8be8c059aU, 0x3d1406adbd2a26aaU, 0xbe31624ebb5e0c5cU, 0xbe1a72df3bea3393U,
  0xbd37b7713e0f11e8U, 0xbe3cd632bb582316U, 0xbcc9cafa3dcb0226U, 0xbda4c733bdca63d0U,
  0x3da7fb0dbda52695U, 0xbde821103e14d6eeU, 0xbd96d109bc8ea061U, 0xbcb6214f3dc30369U,
  0xbe1872d1be03c267U, 0xbe2f24993dd0ed0dU, 0xbda4495bbda5c925U, 0x3dc97699bcdffbdfU,
  0xbe2a544d3c98e384U, 0xbddf797cbd10bdbeU, 0x3b7e6f6c3dc64dbeU, 0xbda00126bd83bd6eU,
  0x3d3237f63dc03812U, 0xbd39b737bdc3862bU, 0x3ccf7b45bdde72c0U, 0x3d7c24d93deb9988U,
  0xbe21302b3e74e6b8U, 0xbe0cbead3d4b2222U, 0xbe19d3983de3f06eU, 0xbdb558043d474bcaU,
  0x3e32301cbcbf8ac1U, 0xbde9ec53bbe99268U, 0xbe0202383d0cf290U, 0x3c4fa9b23d222de2U,
  0x3e2a0cb7bd0550c1U, 0xbb8b5caa3c0b0b0bU, 0x3c98d8febd2147b7U, 0xbcdc396dbdb26cfbU,
  0xbde109be3e8d53c4U, 0x3e1fde71bdfd3458U, 0x3dfc7af9bd70d415U, 0x3cfc08f43d12aabcU,
  0xbe70cb4cbd07d57fU, 0xbd1144f6bdf6d6c6U, 0x3bed54563d112eb2U, 0x3e0d39613d845d89U,
  0x3caf0ebabd12c4c2U, 0x3cbc8cf7bdfe696fU, 0x3d96854d3dafc9d8U, 0xbbc17e9dbc2fae25U,
  0x3e425c5dbe5c47d3U, 0xbd9a9e3dbd83f84dU, 0x3e42bf16be0ff824U, 0x3d0f0937be07eafeU,
  0xbd2469753c8ac16dU, 0x3da9ab103d2a8507U, 0xbdf01c76bd683bb2U, 0xbd5f0034ba102d09U,
  0x3d0558483e561ce3U, 0x3daaa7d33dc218aeU, 0xbd54403abd10713fU, 0xbc6f53833d40e0e6U,
  0xbcdbdc5bbd5149a0U, 0x3dd87702be07cb12U, 0xbd89aa76bafe0b7cU, 0xbc373d0b3dd8ac41U,
  0xbd879b5abcf497ddU, 0x3e0a048bbc1991cdU, 0xbd9fa8fb3db974ceU, 0x3d74991c3c81555fU,
  0xbaf24fda3d723c14U, 0x3dbe0ba03d823625U, 0x3e457b783da704c7U, 0x3d83a0cdbe0c8e8fU,
  0x3de1d5ca3aaaa02aU, 0x3d37ed44bd92e726U, 0xbdcd1055bdc01194U, 0xbdfd63b03d001786U,
  0x3db5bdf63d123a69U, 0x3df36aa3bcc22baeU, 0x3e109e15bd91e9c4U, 0xbcea7cdd3b9ad0b8U,
  0x3ca07700bd702b0eU, 0xbdb58f563cbaebfdU, 0x3d3380243d8fc5d9U, 0x3d40f7aebd13e0e3U,
  0x3da4f064bcaec964U, 0x3d3fade3bd630529U, 0x3d7881873d512759U, 0x3da64235bc19ffbdU,
  0xbd502eb1bd8abbd7U, 0x3ce09905bdd6d429U, 0xbdc52baebd821dd0U, 0x3df6ab213cbea136U,
  0xbcf01b813d569a45U, 0x3d749dfa3dac2719U, 0xbdce78ce3e2c89d8U, 0xbc4973babdfeae4eU,
  0x3e0a7df1bd1610f6U, 0xbe01c39d3dfb22a2U, 0xbdd9f0903e0be1c2U, 0xbe0aee123c07e298U,
  0x3db1f8edbda7f812U, 0x3cd0f23bbdcc6c6bU, 0xbb9d3da7be227752U, 0xbdc677cc3cc27061U,
  0xbccc7630bc6ac0e1U, 0xba2829f1bdceb162U, 0xbdbebadf3d0da70aU, 0xbc6465fabd0ef1ceU,
  0x3b5473e8bd27022bU, 0xbe165d9c3e2d6faeU, 0x3ced05253b8e10f1U, 0xbd6252963d9e3ec9U,
  0xbdf556a83d891f61U, 0x3d904a28bd30f2ecU, 0x3c7b906a3c974ba0U, 0x3dd40598bbe79f8dU,
  0x3d1688053cdb0751U, 0xbd10e7613d72cd09U, 0xbcfd1506bd103e26U, 0xbce0a21e3d73759fU,
  0xbdf6c5b23c97125fU, 0x3e1cf295bd18c595U, 0xbdd6c29e3d7e208bU, 0xbcc6ddf1bd42e599U,
  0xbc5784313d81b661U, 0xbca71b29bdf90575U, 0x3dcbcf1c3d317d4bU, 0x3d6f873e3e05f2a0U,
  0xbcb2c6b9bd6402caU, 0xbd71ca8a3b53206cU, 0x3d5fbd3e3d7743e9U, 0x3d1e6fa0bd6e960fU,
  0x3bf822e53cb39776U, 0x3c13f622bda52cc3U, 0xbd9b448cbdc3cb01U, 0x3b93d05bbc9a5b0bU,
  0xbcf3e74dbd902a26U, 0x3b09f6b33db58bf1U, 0x3e0b69043d3d54e6U, 0xbd1fb831bd887895U,
  0x3cc57e403d547865U, 0xbd85ae10bd303424U, 0xbe01fed1bd9f60d7U, 0xbc4d2498bdd06db6U,
  0xbd597e863dd1516fU, 0x3de5d2e33c4bd4dbU, 0xbdcae409bd8a3a21U, 0xbd77a8353de4e217U,
  0x3cfc89b7be2ad325U, 0x3c82c870bd9780fdU, 0x3d34e2febc36de03U, 0x3d2c3080bdf54cc3U,
  0xbd9916853ca99655U, 0xbd2923153cd79bd0U, 0x3d268156bbb74a20U, 0x3d1bb7cfbcc13d4fU,
  0xbc9c46d8bd413250U, 0xbdd2bf66be05bda0U, 0xbdb83c10bdb69e88U, 0x3da278cc3ca2affdU,
  0xbc1898163d20721aU, 0xbd1fea5abbba2b72U, 0x3d583d65be05a60aU, 0x3de675533d4e6d08U,
  0xbd8f4d5ebd4ff544U, 0xbd15221b3c47c6eeU, 0x3dd60b433da0b35aU, 0x3debf6f1bdc53abcU,
  0xbd861f06bd8c88e9U, 0x3cd141263da2eeacU, 0x3e222f4bbde0db1fU, 0x3aa4bcd4bd9964d1U,
  0x3d5254c63d858022U, 0x3e85f162bd46eabdU, 0x3dfde0f7bcd38d30U, 0xbdb1d9fa3ca7f1bdU,
  0x3d2b54663de98a4dU, 0x3cd13e07bd1fa105U, 0xbdd561d6bc7ff5a6U, 0x3dcad7d6bd85088bU,
  0xbd5d5adcbbaa6f82U, 0x3afa1861bc20eb56U, 0xbccd31563c774958U, 0x3d54e487bcf43946U,
  0x3d473517bd965ce1U, 0x3d9105123d18f3beU, 0xbd620c693dffb1bfU, 0xbb59ce723c4cbde9U,
  0x3b979549bd8911efU, 0x3d3cb7c33dee85dfU, 0x3e1d81d43d0221e1U, 0xbdeebfa93d5b8a5cU,
  0xbd2a313dbc9c06a6U, 0xbd94c5d93bb1f10fU, 0xbdd159083acd9c5bU, 0xbe79e422bd9de048U,
  0xbd03b5ca3d276748U, 0xbd73b377bd757accU, 0x3df15a99bd6c9f70U, 0xbe2c5520bda6b9d7U,
  0x3d8fcf68bd75f590U, 0x3d5c60da3d2b0617U, 0x3aba7c09bd957c44U, 0xbd2108123cd987b2U,
  0x3c9400a9b992e0bdU, 0xbdb85112bd6fdadfU, 0x3d8bf7403d46f8a5U, 0xbcda9f783dcc2a54U,
  0x3df2840d3de38ebbU, 0xbe07e716bc4ec1adU, 0x3d9295be3c829c3aU, 0xb9ec0d5d3bb09ffdU,
  0xbd251a6a3d0d877dU, 0xba9b4cb73b733262U, 0xbde4b8953d80faa0U, 0x3d3ae3c2bddb2937U,
  0x3d172a643e144a03U, 0x3e7ddd8b3d45f29cU, 0xbcd9f685bd10240dU, 0xbc83fe623e365434U,
  0xbda51b5c3b81c35bU, 0x3de5f4a8bd5fb31fU, 0x3c504479bd4cbd72U, 0x3c6d05cbbcc2fd32U,
  0xbd89c3b03dab6149U, 0x3d116b0ebcf307c5U, 0x3dddc5313cdbe5c3U, 0x3e567f013c4f4bf0U,
  0xbcafde27bde84fcfU, 0xbe3922fe3d5d525fU, 0x3dc37712bd9626b4U, 0xbdae91fbbcf519e1U,
  0xbd775da83d99d148U, 0x3d60c43abd47b8adU, 0x3c1e1ff33d3412f1U, 0x3cecd3343d03fbd8U,
  0x3bbab1cf3d18ef6dU, 0x3d20ef363d58d958U, 0xbd4d1af93d85b85aU, 0xbd67b1523dbf21aeU,
  0x3dd3e8873e101650U, 0x3dd424023de3bb39U, 0xbe10d5b33a81a853U, 0x3dad52f03d1fb16cU,
  0x3cac32c7be0e7f84U, 0xbe408b13bc8ed28fU, 0x3b4dd1663bba64e6U, 0xbd9dbf4e3c5071d6U,
  0xbcd0aa50bdb6a699U, 0xbb3897433d4caf82U, 0xba8d2ae63d68572cU, 0xbd042930bdfd1365U,
  0x3d57410bbdbc777dU, 0xbd3f13333da6fd71U, 0x3dc8d2a63c8e934dU, 0x3cc845cdbe33aca6U,
  0xbd8609f2bd0416ffU, 0x3d28607f3b3f4a9dU, 0x3e5c60323d485fdcU, 0x3cb12bcd3b9d6c2eU,
  0x3b42de3fbd338e53U, 0x3cf5b1603dbf452cU, 0xbdf3353b3e17152aU, 0x3da01378bc9b6b89U,
  0xbd981a953c9c87b5U, 0xbd46666ebe3c7fd7U, 0xbd86c4e53de4dc5bU, 0x3d011dd6bc64a887U,
  0x3d16e8c53da0198eU, 0x3dc8c03e3c075b15U, 0xbcaf9292bd839068U, 0x3d79e1ef3c08db83U,
  0xbded4fe2bcd30527U, 0x3d9b40ed3dc0cc39U, 0xbd03a3a6bdc2b731U, 0xbd83c092bd7ef55dU,
  0x3d84c8eb3cf24ba9U, 0x3e1c14403d69bc44U, 0xbd3b2e28be4e04e5U, 0xbc5f25473d95c761U,
  0xbe1e8f75bc8e07e4U, 0x3d78160ebdfc9d81U, 0xbdceea5b3bdd4178U, 0xbc9572d2bdb31c8eU,
  0x3ce47f24bc67e976U, 0xbb36a6e7bd58931bU, 0x3dd63ab6bc564aa6U, 0x3dbb7716bd464841U,
  0x3e2cbe49be54626eU, 0x3bafd6a83ddb872cU, 0x3e0b1877bc97e7b7U, 0x3cef6ab4bd8f9fc9U,
  0x3d2288aebd8e3b8fU, 0x3dbaeb263d354734U, 0xbe1a254b3e5a8987U, 0xbd80c7443c496027U,
  0xbc45497d3d20777dU, 0x3da4b6e03d54daf4U, 0x3dad18e93d75c397U, 0x3d69f054bd9fc229U,
  0x3dbb0a913dd5f737U, 0x3dc430c63d5d394eU, 0xbb40d78ebd88a72cU, 0xbd573f903df7b05aU,
  0x3cf4a1b23cd5e352U, 0x3dd0a7663db4736eU, 0x3ce698673e4f0214U, 0xbb2b765f3cf391eeU,
  0x3ce95effbe3820d6U, 0x3d2550deba1c40b2U, 0xbe3bb985399fa0e5U, 0xbdcb64f83d964debU,
  0x3e0475963cac97bdU, 0xbd46f329bd07942aU, 0x3d831c2d3d2773a8U, 0xbda05c873c1d07b2U,
  0xbdf52ea53d0230a4U, 0x3d9b9ccabce1ad4aU, 0x3db55ab6be3f698fU, 0x3cd9cb89bd2580d7U,
  0xbb821dbc3c928258U, 0x3daa40123c745cffU, 0xbd1bf82fbc40ce32U, 0x3d4d5a663d29da2aU,
  0x3d2d2c54bd5e21f4U, 0xbe09fe4a3dd26ffdU, 0x3da1a8553df3b7dbU, 0xbc9c4f06bc61243aU,
  0xbe4680153e2e197fU, 0xbd65b3abbb875d1eU, 0xbc31c860bc8d2a33U, 0x3d152ca6b9327b5eU,
  0xbe02ff3f3e1381f0U, 0x3cfd7d7fbd8c029cU, 0xbd06f7a43dd34cb0U, 0x3d1af5ad3cc13ae5U,
  0x3cacf689bddfdb45U, 0xbd7909f63e0c7a15U, 0xbd4df25fbd0f142fU, 0xbd4070e13daa7435U,
  0x3baa8c76bd978e41U, 0xbdd0d3b33dab3d09U, 0x3ddb7ae1badcb617U, 0x3dab0555bdaf53f4U,
  0x3d3910193dbc3b5dU, 0x3d9d87edbc129560U, 0x3d9003d8bc513f96U, 0x3d84554cbe3984ebU,
  0x3d3d0a02bc9b35eaU, 0xbc6dd9083d0b797fU, 0xbd60e323bc7ff670U, 0xbdc0e49f3cf54ddaU,
  0xbd7b49e83dfbece9U, 0x3e290e82bcff4509U, 0xbc4afb433d4adc0cU, 0x38f77fc83d25e451U,
  0xbd99b1f9bcb3ee2dU, 0x3e31a9fc3d26e841U, 0x3de975133c12fe1bU, 0xbc0c5ed0bd8c87e2U,
  0x3ca03a213be438ceU, 0x3d4ac23fbc31dcf4U, 0xbe0ff4c4bc8efcf9U, 0x3b7481113db0375dU,
  0x3d5a85243c989714U, 0x3bb4c2cfbda04c5fU, 0x3d901a103d5a7264U, 0xbbfc7e593c8c3149U,
  0x3ddcd4fcbc596b59U, 0x39217b38bd632b5aU, 0xbd22817bbd9aa555U, 0x3e115cb03c5df142U,
  0x3cc8587cbd95ef13U, 0xbd79f49fbd85cc09U, 0xbe1af7193c95400eU, 0x39a314253c5cba04U,
  0x3e2b09733db55a01U, 0x3ca2196cbd19c599U, 0x3e4c7eb6bd6838d7U, 0xbe28f5dfbce6ab63U,
  0xbd679346bcbebc23U, 0xbd09a774bd325ff9U, 0xbddb7e7e3dbcb3c3U, 0xbdbee7b2bd2e6b8eU,
  0x3ced00243ca4c90fU, 0x3de5ca013d659900U, 0xbc74c64dbc449feeU, 0xbe38c752bcea0d79U,
  0xbde7862f3d65ee16U, 0xbd47764bbcbba564U, 0x3d45207e3d4bde09U, 0x3d784907bd80da40U,
  0xbe14ef723c9971c5U, 0x3d1a7c61bd9dfc5bU, 0x3d919abb3d27ae46U, 0x3daadbd4bcb49be6U,
  0x3d864245bb809579U, 0x3c9afbd83d7776b6U, 0x3cdf91753c07eb92U, 0xbc145d7abbeebc4eU,
  0xbb04cee23e2ac2a7U, 0x3d1d82103d23215eU, 0xbb761096bdbed0abU, 0xbca0d8d03d45bb44U,
  0xbdd3ca5bbc953700U, 0xbd2fb066bdcfab58U, 0x3b95a7cc3c8412b7U, 0x3d572bf13c8d8e0dU,
  0x3b508cdc3ce4c69bU, 0x3cf1c21d3ce75d3cU, 0x3d464870bbdd8ed1U, 0x3c92e6e63ddd45d7U,
  0xbcc44c243d34c7acU, 0x3df6e4bb3cc895cdU, 0xbe08fb393d82dae4U, 0xbdb6a9b2bb970ebdU,
  0x3d4ce3b5bcdb9c11U, 0x3e0d26493d8a9e6dU, 0xbd7123c63d92c357U, 0xbd824eb03c3437dcU,
  0xbccd6e6cbd0ee3d5U, 0x3e288b583be58b49U, 0xbd6781c13ca90520U, 0x3d890233bde5a03dU,
  0xbba295e53b11e80bU, 0xbb677382bd164269U, 0xbb9fb1353cd9c5b7U, 0x3e1763c33cbd6874U,
  0xbd15f7773b9bd64aU, 0x3cadff1dbddc1473U, 0x3c4732a9bab4e491U, 0xbd011913be1b5c2dU,
  0xbe36c89c3da59790U, 0xbd7152dfbcde2e39U, 0xbca199c1bd897ec5U, 0x3d7cf371bcf333fbU,
  0x3db0692d3d348f39U, 0x3d83aeb0bd5a0ee3U, 0x3e008b333b5a1db8U, 0xbe78fe71bcb5cca5U,
  0x3d00962bbdc33172U, 0xbea32587bd61532aU, 0xbd1a4cdf3bbeff17U, 0xbd83ed2cbd1564ffU,
  0xbe1ad0ce3e0155a2U, 0xbda873c1bc5a6a6fU, 0x3c1f2537be2a2f11U, 0xbd702906bdcdf8c2U,
  0xbd676beebc03622dU, 0x3d9e6be83d3087beU, 0x3df522de3d7bee30U, 0xbcd47e7a3e0c489dU,
  0xbd908c5d3cb51f52U, 0xbce0408b3d17d6cfU, 0x3d3643eabb402683U, 0x3bd2c8893c46dba1U,
  0xbd1152ca3e704068U, 0x3ca92d9bbc215ad7U, 0x3e3baa34bdca4d78U, 0x3d2d8caebdfa869fU,
  0x3d861418bbe79105U, 0xbe0a98303c60f3afU, 0x3d32cbc13d20bdc7U, 0x3cd391983cf72f72U,
  0xbdae5ef63a332195U, 0xbcb07b9dbde6de72U, 0xbc192b22bdd09507U, 0xbd3addb6bd2b4faeU,
  0x3e779380be05df6dU, 0xbc831d8b3ca14582U, 0xbd833aadbd8d44efU, 0x3d809c003deb6ab6U,
  0x3c59d10c3e2fe255U, 0x3e5093203c555742U, 0xbe3584a73e0b5a08U, 0xbd03dfaf3d837abcU,
  0x3d75611f3d648e9cU, 0x3e1540de3d69f49bU, 0xbdb45c65bdb9c025U, 0xbd0d1b6b3c43e4f4U,
  0x3e200ffcbcea1639U, 0x3da7dbc4bdd8115fU, 0x3cda153a3c9bf943U, 0x3d90c0aebc668b32U,
  0xbae0f08d3e0b37d1U, 0xbd4bc84cbd3f40faU, 0x3d3162d93d912682U, 0x3c9433a73d62c832U,
  0xbdd000f63d6e2cfeU, 0xbde60edf3d50e20cU, 0x3c14dbae3e193253U, 0x3e29e487bb5feddaU,
  0xbde7fb57be03f3f9U, 0xbdf8eee4bd9ff69dU, 0xbdef1a0abdd4f65aU, 0xbdb891cbba9a9b38U,
  0x3dd0c120bcf5cf01U, 0x3e7e31113d317149U, 0xbc80f5583d49e0ffU, 0xbe02c1fd3d5de2ceU,
  0xbc6261babe4043c6U, 0xbdf78abb3d0768b2U, 0xbe2612d8bd685bdcU, 0x3b1968c7bd2a9b88U,
  0xbdd074e5bd750925U, 0xbdc2bc45bdb25b98U, 0x3db12b00bda5a45cU, 0xbd90d2713d93629bU,
  0x3b59054bbba5bb80U, 0xbd2438cb3dd2b3e6U, 0x3d2123413a44b036U, 0xbe1a0b273d12e80bU,
  0xbc5a955d3e2022b3U, 0xbce338153d81d941U, 0x3d9ce46a3cc2fcbcU, 0xbdd95862bdd843aeU,
  0x3dbb66123d36d50bU, 0x3e080d903d4aeb81U, 0x3d55d6d6bd1b42dbU, 0xbc9423ca3da83a58U,
  0xbc9ee291bced00e8U, 0xbd097d5e3df10b9fU, 0xbd812d29bd19e0d4U, 0x3b073b7abd6cb43bU,
  0x3d6fcc4a3d98a657U, 0xbd2e08233d7e53ecU, 0xbd83385f3de5e58dU, 0x3d97b183bcc330a7U,
  0x3e176e9c3c833fcbU, 0xbc3e98d33e176b2dU, 0xbd782a763dc2da94U, 0x3d184215bd802837U,
  0xbd0122fe3be56c35U, 0x3d78948ebd5258a4U, 0x3c8b7b93bda30e8fU, 0x3d33c3debc3fe470U,
  0x3c29b2e73d5ce0d3U, 0x3ddd7f513cb2b097U, 0xbd2e7a4abd649924U, 0xbdeefc2bbc8ef0d0U,
  0xbd3e4f373c1b8fd7U, 0x3da01b2bbdd0d7b6U, 0xbd0470a0bdc98211U, 0xbb8c4e74be0f1e6bU,
  0xbe1647043e080e11U, 0xbdc920adbd289883U, 0x3cdd16dbbd54a41bU, 0xbd9d40303b937db2U,
  0xbbf49836bcefef1dU, 0xbc87e7aa3d8f5548U, 0x3c9510b6bc1592a9U, 0xbd5566b13cdccc12U,
  0xbd2a4c03bdc46065U, 0xbdbeecc7be0e2e78U, 0xbe2678f0381b24b5U, 0xbcb555b6bdf9546eU,
  0x3aa31c4e3d0f35c0U, 0xbcb2b3f6bd125e6cU, 0xbc59714ebd1bd430U, 0xbd8ec9a03d80cdf3U,
  0xbcd9137fbd8e5b22U, 0xbdba2413bd053fffU, 0x3d68a6b6bbe03834U, 0xbd593033bda8edc0U,
  0xbe5cfb913dc31762U, 0xbd9e8dd0be49b77fU, 0x3dc4c5bb3d1f0a0aU, 0x3be245f8bda42cdeU,
  0x3e169b01bd31e0c4U, 0xbe6089eabd9947e1U, 0x3db201e7bc34e0dcU, 0x3cd91073bcad16e7U,
  0x3d3d079139fd998bU, 0xbd877bdcbd66a57fU, 0x3b7fc1df3da729d7U, 0x3c5076643d2167d1U,
  0x3e1896533d12b07fU, 0x3e3435653d213322U, 0xbe501e8a3d81ede3U, 0x3c456a543d90c48dU,
  0xbe44a0563dd80895U, 0x3dcd911dbc9dd6f4U, 0xbeaee60bbd4be650U, 0xbddd04fdbe0e2378U,
  0x3d67b043bd43e1c7U, 0x3d2aadaabd732c19U, 0x3e211b1e3dfcbc8fU, 0x3d028494bd811294U,
  0xbe3089e2be05a016U, 0xbd44764d3da3fa2cU, 0x3c2b026fbe2158d7U, 0xbdb13295be440efaU,
  0xbd8de7533c7e3d2cU, 0x3d9313023d250f59U, 0x3dcd8ef0be1fd41cU, 0xbd72a9edbdcd2618U,
  0x3dbf987d3df0a948U, 0x3df618593d9a80bdU, 0xbd523c303cff8b68U, 0xbd9a02d73c89c815U,
  0x3d80b944bcb8ebdcU, 0x3e04cbd63d7c65daU, 0xbd50c15d3dea2714U, 0x3b90e350bd635d5fU,
  0xbccea64cbc2b56fdU, 0x3c23ea09bdadd4b5U, 0x3d0a97cd3e01fa84U, 0x3c052791bcb15dbbU,
  0xbc78b47fbe09bd4aU, 0xbdbb06d53de9d9dbU, 0xbd2a4bd33df5012eU, 0x3cf015563ce7a02dU,
  0xbda355993c9b0d4aU, 0xbdfa57edbc59858dU, 0xbe176aa1bd6416f9U, 0x3d827c83bda828beU,
  0xbd36f0663dc3b9ccU, 0x3cb24978bd18dd1cU, 0x3dd9dff5bc16fd97U, 0xbcbda7b13e0e4583U,
  0x3dcd9b3b3d9068dcU, 0xbe193270bdbfc73aU, 0xbd94110a3cfb01faU, 0x3d010331bda0ef71U,
  0xbdb81767bd850dddU, 0x3d34177bbddf19d6U, 0xbe059d603d5982ebU, 0x3daf959f3d7a5938U,
  0x3bed94923c990df1U, 0xbe07d03fbdafd5c1U, 0xbcd4ac933db62b76U, 0x3e151278bdc31edeU,
  0x399492603c11734aU, 0x3d855838bd28938fU, 0xbdbb7fafbd8ee4fbU, 0xbe173690bd6f8c2bU,
  0x3d8e88ea3c37756aU, 0x3d924c973dc923b4U, 0x3ca483283dbd2e01U, 0xbdc504843c80343dU,
  0x3d24a6783d9015c2U, 0xbd68bd4c3de90c11U, 0xbdc739c0bd513e39U, 0x3c21651f3c7a62d8U,
  0xbe1a21ad3bc46699U, 0xbd2b343fbc92ec24U, 0xbccb32573cdd3c4aU, 0x3d9e2cf03d5d375eU,
  0x3c63dfe8bc9d5c73U, 0xbdd5a52d3dc92bebU, 0x3da506263ba147f0U, 0x3dcea2733d3e4733U,
  0xbdf244d43e1b6ad7U, 0x3c38859fbd895b02U, 0x3cf0c18a3d8a5099U, 0x3d8742ce3db29699U,
  0x3e62079bbab50d67U, 0xbd6a534dbd41365dU, 0x3df01c1abca0bcb4U, 0xbcfa93e6bd91ee9fU,
  0xbc8785b33e08b6e1U, 0x3e2bbd363d844ccaU, 0xbc4f35d23db0a8fcU, 0x3d3626de3a8f332aU,
  0xbdb681f83d75ca7bU, 0xbd271cf73cf32ccdU, 0x3cd2093ebd2eb80dU, 0xbd2450cd3d623a51U,
  0xbbcd1954be129307U, 0xbdaba50fbd43e18fU, 0x3dc1d8eb3de7fd37U, 0xbcbde561bcad75eeU,
  0xbda8eccbbdffa850U, 0x3d8027f7bdb40822U, 0xbc5776bebca38e01U, 0x3e0fb689bd7541c1U,
  0x3c5b6c393cd3d316U, 0x3d6a19083d818ec0U, 0x3de0c5843d6190feU, 0xbcf129d8bce1fb88U,
  0x3c1dfec0bdf17b1bU, 0x3d53c96bbd02ba23U, 0x3cd31bcb3ba68650U, 0x3d92f0b43bb97716U,
  0x3e07c1ff3dfbb212U, 0x3d135f033e07d43fU, 0xbc67cc1d3b44c5b6U, 0xbbddbbf4bd8da4edU,
  0xbdbee263bd391f89U, 0xbbd823c1bdd76b8cU, 0xbd1e3535bc50219bU, 0x3d682e73bbf51893U,
  0xbc4ba6dc3d742696U, 0xbd25c630bd02d5cdU, 0xbd88d9183d8f4354U, 0x3c930afc3ca8ea25U,
  0x3d981097bba79699U, 0x3bc1d73e3cb310b3U, 0x3e0008cc3d0b6652U, 0x3d3014053dcdff89U,
  0x3db021a8bb8165bbU, 0x3cdf4c63be3ecd0eU, 0x3a213b1ebdd05b2eU, 0x3d4aa1b83bbc8f02U,
  0xbdd4f808be18569eU, 0x3c69cbffbd70397aU, 0xbb5999963e295788U, 0xbd1f623f3d01b1b3U,
  0x3e6e41ec3ceea1bcU, 0x3b65c52cbc705ddfU, 0x3ca718fbbd89f346U, 0x3d27402c3dc60fbaU,
  0x3d09f2743dab4be0U, 0x3cd5719d3d806c6aU, 0xbd1cc32e3dd8d61eU, 0x3b30f100bd279fd3U,
  0xbdb47f79bd689861U, 0xbd3e90d93cf044bfU, 0xbdaf454e3d3884b2U, 0x3ce8e6623c2b5c42U,
  0xbd4572433db02144U, 0xbd939eaabc64df4bU, 0xbd14448e3d0a0ff7U, 0x3c0dd6fab9a6aebaU,
  0xbaabd1a83d712e2eU, 0xbd5fc49c3e0e7de1U, 0x3d758237bcaae637U, 0x3cfd918ebd879f9fU,
  0x3d8dbeeebd90febbU, 0xbd99135ebde66b77U, 0x3d5095af3e039755U, 0xbcbbc831bd639785U,
  0x3c8b41acbd5f6428U, 0x3da2aa413dc4b5e0U, 0xbdc87fd2bd37184aU, 0xbd90d47b3e0d0588U,
  0x3d1377b6be104d42U, 0xbc3fbb40bcdb0d93U, 0x3e3561293c481639U, 0xbd9928f6bd49af64U,
  0xbd82758cbc0ae71eU, 0x3e11f4063d7511fcU, 0xbd967c95bdaef198U, 0x3e06d707bd2da0a1U,
  0x3d2cf2ea3da452bbU, 0x3d8502d33cb90505U, 0x3db16caa3d4ab52dU, 0xbcdfc169bc9014f8U,
  0xbd92ba8b3d325f27U, 0xbae12b6dbbbc3900U, 0xbd10a4c73da25650U, 0x3dc2a79d3dbc30b0U,
  0x3e28bb2fbcf62fc1U, 0x3d9eb2043c3e6bd1U, 0xbc0c17cc3c6e22ddU, 0xbe09da52bd93acd5U,
  0x3e2389273dd25641U, 0x3ddd84083e370a3dU, 0xbd596da33d631816U, 0x3df5f0913d56947eU,
  0x3d314aa13da01476U, 0x3d6c735dbdebe4ddU, 0x3d29617bbce66401U, 0x3c506a963dfac12aU,
  0x3c9849f03cea7c41U, 0x3bd6a1da3d7c43c4U, 0x3bcf2b603dcbd4b7U, 0x3d500486bc3877ddU,
  0x3d46fc89bb99d8b1U, 0xbb4461cb3ae7376dU, 0x3d3c9da13d26ef0cU, 0x3b934cab3db4357bU,
  0x3bb0f7903d89b5e5U, 0x3e1cb15e3b33d9d3U, 0xbcc3c6b23d89adc8U, 0x3d0931263d494230U,
  0x3d9dd0a83dfe55d6U, 0x3e4062e83d241e86U, 0xbd86ef9bbdcf761aU, 0xbce749ea3ce74617U,
  0xbba5f2dc3c858fd4U, 0x3e00b0a9bcbb9f87U, 0xbdb855133cac0609U, 0x3d06af55bce68d29U,
  0x3d03db84bc969464U, 0xbd7fdcdbbd50d811U, 0x3c4c66d53d86f358U, 0xbdc371a2baad1aeaU,
  0xbc8f2eb23dbe6263U, 0xbe08c672bde8395fU, 0x3e31c4823c193a26U, 0xbcff4c373d8fdcdcU,
  0x3bdcf876be3740c9U, 0x3d7e7796bcab99beU, 0xbd727838bdcc029eU, 0xbde687cabd134ad9U,
  0xbd3f3172bda21579U, 0xbd3a28df3cc5b726U, 0x3da72f773d4ba2ddU, 0x3d50052b3c4f16f8U,
  0xbd46df77bdf6dac1U, 0xbc92cfe1bd1820a2U, 0x3d8004773c99d7b6U, 0x3b0884f53da24b48U,
  0xbe346df53e2e3905U, 0xbc75eb53bdfd6d7fU, 0x3d8c9fb43c7c822cU, 0x3d03f92fbd1fac41U,
  0x3e1d3a90bd47aa6cU, 0xbd899e46bdc7fd42U, 0xbd54cc513e61088dU, 0xbd64b537bd3978ccU,
  0xbcc7f4e23de18640U, 0x3dda86c1be034567U, 0xbe6dfc59bd09aa67U, 0x3d947334be1cd100U,
  0x3d87e894bb8467c2U, 0x3d6dae0cbcb3494aU, 0xbce56df6bd0b5ee1U, 0x3d6c34613dce6a6fU,
  0x3d8177a33ded4e70U, 0x3e1d0f2d3c1cc3ebU, 0xbc4031003cbfff98U, 0x3ca250f0bd212e29U,
  0xbc018cc1bd960fa8U, 0xbc9d8e77bd896936U, 0xbd0efcf83dcc1a97U, 0x3d117ad8bdc93434U,
  0xbbd6eda53d8aa008U, 0xba213ac83e850d0dU, 0xbcc717ccbc8036aeU, 0xbd9728793d9a30cfU,
  0xbde296633b0a3789U, 0xbd68f617be41be00U, 0x3a9202d9be07edbaU, 0xbc20ec3f3c86de22U,
  0x3da8b8683de4d5e0U, 0x3e1d4ee03d2bea5dU, 0xbe4a5adbbe2ec6d7U, 0xbd9b596ebd45cf96U,
  0xbda13d81bd43c791U, 0x3e0614793dc1686aU, 0xbc36f201bda2cf76U, 0x3cf35889bdfc159dU,
  0x3df7ce5a3c08c88aU, 0xbbe52fedbc9e14a2U, 0x3de33e42be52592eU, 0xbd1f58973dba3371U,
  0x3dde3c7c3c26f66eU, 0xbd62cdf23ced7e09U, 0x3e0abf4b3e0672b5U, 0xbe1b48873b4628b5U,
  0x3daf8e46be3b81edU, 0xbe23f46a3d8da998U, 0xbc4c9830bba55e21U, 0x3cad24b83c04130aU,
  0x3e0c7ae93c70221fU, 0xbd0be27abd20397dU, 0x3d8eec373d56fa91U, 0x3d89e77cbd058c7aU,
  0x3d44748cbd565940U, 0xbb77dea13da12db5U, 0xbd2cb5853d6b5cfdU, 0x3cdbf2d6bca14209U,
  0x3cdf4127bdf52585U, 0x3d3ae2033e3d7255U, 0xbd93f77f3dc44401U, 0xbc561372bc907f2bU,
  0xbd96aa673dab3c9aU, 0x3c8ed6883cb4df04U, 0x3c4c94ddbd02afadU, 0x3d0fe59a3c9dd39aU,
  0x3c81b6f33d138ca1U, 0xbb3dec8bbc6d2453U, 0xbd92028b3d46e6c4U, 0x3ded0286bd36047fU,
  0xbe3df5323d1c3840U, 0xbcdaac4ebe12ace0U, 0x3d85da0b3d9c194cU, 0x3d3439b13d7e33e8U,
  0x3de573773d2ceeadU, 0xbd7e229f3dcca9e8U, 0x3db9bdadbcd46449U, 0x3c649a9f3dcb10abU,
  0x3c99fe353d769a1aU, 0x3d6fef403d80201aU, 0xbe2e59b6bd4b7f13U, 0xbe3efed8bb82f5faU,
  0x3d3c7663bcb1b21cU, 0xbcb9364cbd7c3caaU, 0xbd9c08d6bd8b29cfU, 0x3c8acc34bd915ce3U,
  0xbdf39c4ebde2c4e8U, 0x3dbf047ebd3c66a5U, 0x3d82f86a3e007d6aU, 0xbdbd783abd0d36baU,
  0x3d9199523d86089dU, 0x3d7460c63e1bafa4U, 0x3dd8a227bda212c5U, 0x3bac8e26be008c09U,
  0xbd2cc009bdd2086bU, 0x3d45d5fabcec385aU, 0xbdddcdf7bb5d3039U, 0xbcfce6c8bd93ffd2U,
  0xbe41e930bd3602d6U, 0xbda6b449bca53540U, 0xbcc543ba3d09dfb7U, 0x3c5eb31f3d45807bU,
  0x3c5b082abd9c4d13U, 0xbd50956b3d9eba9aU, 0xbd7f1402bcb62240U, 0xbd06bff1bbabad05U,
  0xbd95e62abe00cbeaU, 0xbd930081bd68e62fU, 0xbdd5b73bbe165f00U, 0xbd9a3be13b752976U,
  0x3dffea543dca102cU, 0xbc79ba21bdd47617U, 0x3ceecc46bcf6982fU, 0xbe10f5f33de88dc7U,
  0xbce010c0bd5a3bacU, 0xbd89cdf9bd9c0dc6U, 0xbe3258c5bbe46a22U, 0xbc943e9ebda28d07U,
  0xbd599a01bd06b533U, 0x3de3729e3cf0ffc5U, 0x3e472d073c8efa15U, 0x3e34ed2e3dd49601U,
  0xbde55ca33c9c851fU, 0xbdba826cbe96ddb5U, 0xbd61076c3e080223U, 0x3e0b7157bdfe950cU,
  0xbe88d18d3e56978fU, 0x3d91cbe0be021381U, 0xbe25d0813e4e0506U, 0xbe077e10bd21d9f5U,
  0x3e9a1f24bc1c447cU, 0xbe1a3d233ccb346bU, 0xbe637d86be46fd30U, 0xbe8a4f8dbcd4e633U,
  0x3dcdf3ef3e2a85b9U, 0x3c362ef13e28d127U, 0xbd176e51bde3a3eaU, 0x3c9cbea8be6217a2U,
  0xbe7f867c3cc54721U, 0xbe7520d6bde2729bU, 0xbdba5ee03e1c92feU, 0x3ca1ebc9be6fa56aU,
  0x3e9027223e08da3aU, 0xbd927a603e320ec8U, 0xbdd665e3bd3f92caU, 0xbd531bb1bc034c4bU,
  0xbdf1f3dc3ec209e3U, 0x3e3d10d4bdd74432U, 0x3d5ab1293d438bc3U, 0x3d467fa23d2ad17eU,
  0xbc7c71a5bd1b9616U, 0x3de389d23d74908cU, 0x3d8d6fd1bdc391b9U, 0xbd5d88d0bdc11277U,
  0xbc8c70b0bc86930bU, 0x3dd4de663e03e03dU, 0x3dadcb073e2e92c9U, 0xbdc9027ebcf42a8fU,
  0x3d393f1e3bc3b7c7U, 0x3c41ba90bdf5650cU, 0x3dae1ef23d8e81eeU, 0xbd9dd9e63e0a7fc1U,
  0xbe49b8b1bcb6d937U, 0xbdd9c757bd052c81U, 0x3dfef4b3bd2f8535U, 0xbda61e31bdd8efbfU,
  0x3cb3aa9fbd9b809fU, 0xbcd2ca933d2eeed0U, 0xbdeee7343d825bf3U, 0xbd963ca0bd34d77eU,
  0x3d96b5af3c768074U, 0xbca4aa16bd204d75U, 0xbaca6018bd9f1badU, 0x3aa6f3df3d8f6401U,
  0xbd80c9d6bda4ecc7U, 0xbd3320253e56e820U, 0x3cf3b2243dbde71fU, 0xbc560f4d3d82e86cU,
  0x3ce9d81abd133b12U, 0xbdb0fbfabdc4ba25U, 0x3cd53f703d488ceeU, 0xbad320cebcac9b68U,
  0x3c44cdb73dbbe47aU, 0xbdaea8c5bd5ddc43U, 0x3db21d75bc6a4f51U, 0x3e4b831f3a008c91U,
  0xbd58bd68bc9f9aa2U, 0x3e19f067bdb2bc7cU, 0xbc9fafb0bd8d575fU, 0x3d4a093cbdb00850U,
  0x3cd7a06c3d4a3452U, 0xbc9d1b64bc95415bU, 0x3d0cbd8b3c859238U, 0xbd18c18bbd478c06U,
  0x3d603bd3bd3067deU, 0xbcfe440ebe2b2f52U, 0x3dc805d9be0c769aU, 0xbc2262d13dd82564U,
  0xbd56d18a3d0057e1U, 0xbda9fbe8bcb6df86U, 0x3ce031a83ae931a3U, 0xbc7c00fe3d9c292fU,
  0x3de89ed0bceee337U, 0xbcb5e56ebd7e6f86U, 0x3d01897dbe080580U, 0xbd82722a3db1755eU,
  0xbc32a8d33d0ce219U, 0x3cc822383c31f612U, 0xbd3870cfbc023860U, 0x3d5078213ddbf0eaU,
  0x3d774aae3d7c6222U, 0x3de882553db9648eU, 0xbd9b20cf3cc2c1c4U, 0x3c2d077dbd0fd71aU,
  0x3cabf4ad3c77da01U, 0x3bd2f1a5bcc9d44dU, 0xbe24c5d63e116721U, 0x3d90acd0bdac4550U,
  0xbd07a1eb3bbe7c71U, 0xbd2c46fd3d2ae885U, 0x3e0cbeafbc8d7db8U, 0xbd8cd9bd3d8e02bbU,
  0xbaaa02a63b78d567U, 0x3bf438fcbd386d39U, 0x3c4e9c7d3dfc46feU, 0xbe19deb9bd8f9508U,
  0x3cfc8adfbd81a160U, 0xbd9763703bd0de07U, 0xbd634b88bdb83a55U, 0xbc0869803cfbf6beU,
  0x3c9d40673c469c06U, 0xbe4105afbdeeadd4U, 0x3dfb9f0e3d571c34U, 0xbd84d8123d98df84U,
  0xba8a0e92bda35333U, 0xbd7c95f43d66e4dbU, 0x3c04ea47bcdd2bf3U, 0x3d7b3c37bd7da4b2U,
  0xbcee7a0fba89047dU, 0xbdc1eb473bb0e34cU, 0x3d67a5b13da9bf2dU, 0xbaaaf2cb3e11a583U,
  0xbe2a6823bda99646U, 0xbd1288b9bca020f9U, 0xbe92315cbce2962fU, 0x3e09fe14bd4af869U,
  0xbd6251273c99d4b7U, 0x3e141b973cea63e1U, 0xbc66733c3cb24251U, 0xbd995cbbbe0c820fU,
  0x3b9fda8abb99ea96U, 0xbe16edf2bba8396dU, 0x3d1d1a7abdd19e8fU, 0x3ccf3cb0bd9e07edU,
  0x3dc9bd92bcbc3922U, 0xbd8aee423d3ccd58U, 0x3d34ad8cbd563d18U, 0x3d5bd188bcfe91a9U,
  0x3cf1d0febcadeff5U, 0x3d808af33c1d903eU, 0xbd05d3093e09c22fU, 0xbdec3507bdd63174U,
  0xbcbfdd593dd6bbc7U, 0xbe028ff6bcc0d5a8U, 0xbe42dfd0bd0cd038U, 0x3b88e54e3db77507U,
  0xbd86dbad3deff469U, 0xbdc703e73cc9b2a4U, 0x3c3a4b91be2901b0U, 0xbdab9342be0c9e8bU,
  0x3e29e621382e67f6U, 0xbe1179803d15c8e9U, 0x3da476633d0d1936U, 0xbdfe1aa6be4c6de1U,
  0x3e0d4e413c7bcf54U, 0x3d0c3e69be051853U, 0x3c8e31403e0d69dfU, 0x3df553a6be2afce3U,
  0xbdfb8c463e1d9492U, 0xbe49e22d3cd64b70U, 0x3e1bf9d8bceb3b9bU, 0x3e5a8c1f3d8e7acaU,
  0xbe0bb786bdc404c2U, 0xbcb6b7b4ba6ae304U, 0xbe4222343db3f1c7U, 0x3e2d65363d17b44bU,
  0xbdc9577cbd9ef449U, 0x3d944294bda8fd21U, 0x3d1d159a3ccd254bU, 0x3dfdcf0b3d812c3eU,
  0x3c9a87febcb26c56U, 0x3d736555be16fcdaU, 0xbdb9c1bf3d3c65b0U, 0xbcc6d5bb3e3b8f4eU,
  0x3e27d810bd96cbadU, 0xbdfe39cfbe4a16e2U, 0xbe38a3c43e378af8U, 0x3d1a3d19bde06ce0U,
  0xbdb0c068be00f2d4U, 0xbd123c8ebb8bb645U, 0x3d97309d3bf5cc5eU, 0xbc8399f03dbbcef8U,
  0x3dd62c27bdd3dfefU, 0x3d0ac0e0bd4383fdU, 0xbda4666f3db81a6aU, 0xbc3f7ba2bd920cb8U,
  0xbe3452873da072eeU, 0x3d1f2e3bbda08697U, 0x3d7b37993dcaa5e5U, 0xbd860e363ba1356bU,
  0x3e1cefe03e28a858U, 0x3d246dd33ca08901U, 0xbc5e846abc526a88U, 0xbcce556d3db91308U,
  0xbdaaaf683d9e8ae3U, 0xbd7e28e63e0330aaU, 0xbd82e801bdaddb14U, 0x3d885b1abd1b32e7U,
  0xbe2172b93d2343a8U, 0x3cd87f77bddd550aU, 0x3a7a2dce3d0e922eU, 0x3d53c8bbbde9539fU,
  0x3e0fabadbcb721ffU, 0xbdd93f88bcd5e5a2U, 0x3d07a9a8bc210330U, 0xbdfca2443c4bac11U,
  0xbccff7ce3dfb1f6eU, 0x3dcd3a543be5e0f0U, 0xbd6ecd01bc2911c9U, 0xbd34af57bda6f417U,
  0x3d8245d3bc0ba7a9U, 0xbd20b0493dbf24f8U, 0x3cf7d13ebcec9e3eU, 0x3afac4b5bce93473U,
  0x3db116c33d7e3a57U, 0x3bb24905bcd7b9b2U, 0xbd81dc1a3d2e2d03U, 0x3c197d22bcc98759U,
  0x3c05d8c73dbc937fU, 0xbce668a03ddb5999U, 0xbe1c0ffb3c4f6cacU, 0x3e4649143cccddffU,
  0xbdb51473bcafa560U, 0x3c3b631f3dad4c97U, 0x3dd47c72bdfc223eU, 0x3d704083bd5a1487U,
  0xbd2c6829be1cbbe1U, 0xbd90c5eb3d7ed887U, 0xbd4849c43d7d2574U, 0x3b0157a6bd4e8f10U,
  0x3dcbc2583d97cd2fU, 0x3c0d993c3dd74d77U, 0xbdba22e9bd32b267U, 0xbcadd6b53c66eaddU,
  0x3e01920bbe08b1c7U, 0xbcb893a23dc6a58dU, 0xbe0915783d558e58U, 0x3ca1d31fbc3865c1U,
  0xbdec1a51ba00ccadU, 0x3d801c553c12e29fU, 0x3dfecb943dfeae58U, 0x3b83f6ce3daf274eU,
  0xbd40b839be13fe67U, 0xbd61ae30bca08d8fU, 0xbc863e51bd9a493dU, 0x3d4a4f1a3c79b334U,
  0x3ce6490f3d165e1cU, 0x3cda1514bdde7cf2U, 0xbd87f3f33e15a8f8U, 0xbdf1ea00bd5eed32U,
  0x3e197d463dcb9d48U, 0x3e2bb54a3dc89f0bU, 0xbe0269b3bc9f38c0U, 0xbe056ddebdb2175cU,
  0x3d52495ebbb90fa3U, 0x3caa6f94bd89297dU, 0xbc5ef2b53ce3ff5cU, 0x3cfeb9e0bd8ea552U,
  0xbdc74ede3c97c5e3U, 0xbe18bac5bdb7a60bU, 0xbcbc88553c52adbcU, 0x3c020ef2bcc25d9dU,
  0x3d7b4ff1bbfbe903U, 0x3c86bf383e30bc2cU, 0x3dba518dbdeaa0a5U, 0xbdffd13cbdb34dadU,
  0xbb95e7df3dc29071U, 0x3d651378be2eb917U, 0x3d9d38813b5201ceU, 0xbbd793623cb9ba58U,
  0x3da6bf31bdb7c92bU, 0xbd9dedd2bcc4cf21U, 0xbe06bac63d332ddfU, 0xbd5a084bbcc0db51U,
  0xbc9c647d3d936d4eU, 0x3e0ee9303d5f1c5cU, 0xbe450255bda1330fU, 0x3de05ef6bdccace8U,
  0xbce3bbaa3e106d9cU, 0xbde9602c3d8fba89U, 0x3d5003f8bdacae61U, 0x3c0281f73bcc8438U,
  0x3d11521abc62eafeU, 0x3ce405213be4304bU, 0x3db897e3bd833ceaU, 0xbcc63ca23e25ad9cU,
  0xbd43dd193d245850U, 0x3c788cabbcb895c5U, 0xbe1c4b26bddea0f9U, 0xbc44b1953ca6a97fU,
  0xbd2a3d193bd08853U, 0x3cba4691bde1fae6U, 0x3e22d3543dabfadcU, 0x3dc588f73dd6807fU,
  0xbcf456b6bd183ad7U, 0xbd9e1f68bc8a16a5U, 0xbd9912e33e1de49bU, 0x3dfb0c15bcc91ec0U,
  0x3b20d5933d210a71U, 0xbd0f1a90bda1a415U, 0x3cfbdf6b3e09f91eU, 0x3d943c35bd84d2bcU,
  0x3e2443243db99f43U, 0xbc3c994b3ccad018U, 0x3b8d71743d0d66c4U, 0x3dcef710bbcc0e1aU,
  0x3d6390b63d1c4b19U, 0xbb185839bd387020U, 0xbcc2f258bdad9181U, 0x3cb06d46bd02579cU,
  0x3df0c8043c266fcbU, 0xbd2147c7bcc6d334U, 0x3ca99c57bc254b40U, 0xbd5878af3d02c33fU,
  0x3c91fe003d1eaa83U, 0xbde838d6bd636622U, 0xbda415e0bc15d5d5U, 0x3d906922bd7955e8U,
  0xbcac3832bd3d4e17U, 0x3d63e891bcbffb49U, 0x3d7eecd03deeed1cU, 0x3d1b8f35bc38f3c6U,
  0x3dcaa3b23a881026U, 0xbaafa001bd5533c0U, 0x3e1c49b13d872e66U, 0xbdfea6bbbbc28a7dU,
  0xbd7c71843d69c156U, 0xbc9357cbbd0c4714U, 0xbc740ba83e41c461U, 0xbe0ad714bd07c962U,
  0xbc8b70993c910495U, 0xbc9d7e303d7c226bU, 0x3dc518493db61ea6U, 0x3ca010003d1610f9U,
  0x3da4a7813c5f36dbU, 0xbc3830f33df5b78bU, 0x3cf09d973ca385b9U, 0x3a9575ae3d1ecee7U,
  0xbc5e2863bd0ab2c0U, 0x3c83bfef3d0445bcU, 0xbd1c57343d8b56c8U, 0xba87586a3cb8b44dU,
  0x3caea6e43d0cfbdfU, 0x3d4a3a19bd36c80fU, 0xbd0240213d844fa1U, 0x3bfe3f52be83618fU,
  0xbd599c103d686612U, 0xbc1d2f9a3bf9906dU, 0xbd3aa5d4bd4fe223U, 0xbe7188fbbd9235c3U,
  0x3dc822ee3c04055aU, 0xbdb29acd3d809969U, 0x3e224290be0790a0U, 0x3d61e031bcd5f558U,
  0x3d82c3c5bc4fff30U, 0xbb9361943bf41bfeU, 0xbe190a223ca52d4dU, 0x3c2d0ea6bd90aafbU,
  0xbe135189bda393efU, 0xbd35d18d3d54c5bcU, 0x3db4d9db3d59f7b4U, 0x3c8ccbacbc2cff82U,
  0x3d15fe25bc9d3c66U, 0xbc57a217bd8b223aU, 0xbe0cc9173c820aaeU, 0xbc959becbbf6cd41U,
  0xbd108a88bdb6454bU, 0xbd37e6e13ced0eb2U, 0xbcca2eccbc9a917aU, 0xbd322dc33de9963aU,
  0xbcb69122bda39f4fU, 0x3ce852d33dc594f9U, 0xbca41bdf3c7a5638U, 0xbd957a21bdacedceU,
  0x3d0330563d33ba1eU, 0xbc19f76bbdb275b1U, 0x3d392ba73c7c7c35U, 0xbdfa765c3d267efdU,
  0xbdbba9b93d78ee48U, 0x3d72022ebd44ab6fU, 0xbd654b8b3c58e30aU, 0xbded0d48bd1fc418U,
  0x3e15d98ebd5b846eU, 0x3c8b8421bc38aeacU, 0x3d5f475d38072f34U, 0xbd6ecef63c62008bU,
  0xbccca92c3d926f0cU, 0x3d9897c53df5b4e0U, 0x3cd6522a3e184d45U, 0xbe1943e0bd37015bU,
  0xbd95dc2d3d5f6a7dU, 0xbbdf28b0bd1a0cedU, 0xbdabcc7a3d0ec255U, 0x3d2ba951bd25625bU,
  0x3d16442bbaa597e0U, 0x3c0c0ba33c511ef9U, 0x3de5a7113c281057U, 0x3deeb1653ce64463U,
  0xbc162cf3bc315673U, 0x3b9d59c4bd4949f5U, 0xbd9a97213cf267f0U, 0x3c92b78a3df49b17U,
  0x3afa7d6cbc8ceaefU, 0xbd41a0fbbe18dc10U, 0xbcb495b4bd3b9e7eU, 0xbb99bc1dbda45823U,
  0x3cbebf3e3d879bdbU, 0x3cec65283d7614c5U, 0x3ca71387bb9a317cU, 0x3d95be153c51e649U,
  0x3de8443cbdbea12cU, 0xbc149c19bcf06f47U, 0x3dd39c923d8b6bd1U, 0x3cc236c73da31d9bU,
  0x3d2aa3c2bc612786U, 0x3dc5a4adbd838fd3U, 0xbda75b633e1c2eaeU, 0x3d6efa56bdd33695U,
  0x3d5cf0b3bd56df95U, 0xbe4d3be8bca5472eU, 0x3ddc88d9bd0bdaf4U, 0xbb2491073d305764U,
  0x3d027053be266b8eU, 0xbcd8c2703dd7d3d5U, 0xbd385cd93d4fee36U, 0xbd4b4f103cb0aff5U,
  0x3bc7ef29bd5bbbeaU, 0x3d63a0d83d01d891U, 0xbd04a11cbd54ba9dU, 0xbd45d8653bc4770cU,
  0xbdaf41ef3db1acf6U, 0x3d6dbc713be34f91U, 0x3d6400d1bcc1c7d5U, 0xbd0288ddbdbdfb49U,
  0xbd07ff3e3c8324f9U, 0x3c4404d0bda9c589U, 0x3df02f403d9dbb6fU, 0x3d4f32a53d6323c5U,
  0x3d8b2195bd4e1f5bU, 0x3d9fbd2dbaff2018U, 0x3dfa152c3c7075f8U, 0xbce657ec3bcfb3b8U,
  0x3e82facdbdeb641fU, 0x3cfa6321bd850ce7U, 0x3d934a1a3c1ac993U, 0xbd0581a73c676b7bU,
  0xbcdf504fbcf9e9c5U, 0xbd3224fb3dcf9b2fU, 0xbd4f50633b8980ceU, 0xbdaa83863daf5478U,
  0xbdcf7b053db6af57U, 0x3d0d366cbdd00ca8U, 0x3e242cd03c846a61U, 0x3d8488dc3d272e46U,
  0xbc8da0a43d59aa26U, 0xbddb4424bdcc2f98U, 0xbd938a393d99b3b4U, 0xbdc4d197bd21cfdeU,
  0x3ddd1d283cfb5c08U, 0x3d2ec2d6bc5b0af2U, 0x3dc3e0d2bcc8bfc3U, 0x3d655e6e3dce5c35U,
  0xbb9c80d7bc92f4e4U, 0xbd4c3947bd2ae701U, 0x3d192352bdc16459U, 0x3d9ea93cbd474d86U,
  0x3bff67c9bc53f0b7U, 0x3de324a03e388b34U, 0x3d4904e2bc519ab7U, 0x3e0ba83cbdc3d39dU,
  0xbd6c9cb03d13f96aU, 0x3d660130bc4d9d8bU, 0x3d9120573ccf3564U, 0xbbe2b6103d234138U,
  0xbd026f27bd0a0d3eU, 0xbc846f82bd2bb3dbU, 0xbb640412b92d0c29U, 0x3cc04829bb339916U,
  0x3d0ad8753dfa5b00U, 0xbd8710f73800c9bfU, 0xbe0dce7f3d3dfaa0U, 0x3c6e24713d865698U,
  0x3d01ab513c3fe1cfU, 0xbd835d723da6ce28U, 0xbe42e6ddbc2dd9acU, 0x3de3c7ac3c7b1dddU,
  0xbd957ae63d78f072U, 0xbc4bfee53d940acaU, 0xbe00b2213ca1804dU, 0xbc201981be0eb13eU,
  0x3d068477bd305503U, 0xbe336c5e3c813ac0U, 0x3da7086d3c5ee689U, 0xbd1d5984bd4630c3U,
  0x3e220d2cbdc69aedU, 0xbdedc7bdbd9de708U, 0x3c94c03cbd74cc8fU, 0xbe12f6f63c07dfe4U,
  0x3c94a5a6bc7a9fb8U, 0x3cd994573d1ff920U, 0x3d56c091bcccf033U, 0x3d318b0abda779c9U,
  0x3e8e6c1ebe099075U, 0xbd88c1a3bceef6deU, 0xbdba097cbc8e9cc8U, 0xbda454f33b5c850dU,
  0x3d0859423d1c0ca7U, 0x3d7ec46e3b7c9616U, 0x3bcbc701bc940e61U, 0x3d32d75bbd620907U,
  0x3d3a1e683d8914eeU, 0xbd85a6463dc91947U, 0x3be7f3ae3a48b033U, 0x3c97b988bd3e0744U,
  0xbc9c2aec3d3632bbU, 0x3ced8052bcf1b75aU, 0xbcc2ad353c558bd3U, 0xbdd7174d3bc6664dU,
  0x3d5f3d87bd370ad8U, 0xbd7d86a63cc34187U, 0x3e15dddabd3e2043U, 0x3dc1391d3d68d3aeU,
  0x3d27981b3e1bddf1U, 0xbd4997743dd1356aU, 0x3df74950bdad6009U, 0xbd35fbd73c6f1116U,
  0x3cacc4c9bd424c77U, 0x3d8b8d90bdf9926dU, 0x3ca1196bbda5bca0U, 0x3e0c5718bd88ffe2U,
  0xbc40d765bd5d14e3U, 0xbd6732cebdc52582U, 0xbd024719bd499ddcU, 0x3cfefa0cbd342b7fU,
  0xbd83c243bcd924e0U, 0xbcf04301bd847893U, 0x3d822c50baf6c2ffU, 0x3cd98214bd625685U,
  0x3c8154c83d2ad068U, 0xbcc232d23cc12c7fU, 0x3d0f61ce3dd7d700U, 0x3d11b08c3e09e7b6U,
  0xbdc5f3b23b1722aaU, 0x3d8cc28fbdd2331dU, 0xbc101b763dac2f5dU, 0x3e0c4f8e3d9d52baU,
  0xbd349060bd8503b5U, 0xbe091b8f3d44263fU, 0x3dbee3203d43f756U, 0xbda79f9cbd87e53fU,
  0x3d01960c3dc6a7acU, 0xbd26891e3c59150dU, 0xbd61f4e4bd95fc43U, 0x3d3401e9bc6b0919U,
  0x3b973d053e257c55U, 0xbd9115b3bc9bb8b4U, 0xbc4f1274bdca08a0U, 0xbdd33e4bbd9fe371U,
  0xbd753d823d79810dU, 0xbe1719d3bd3f7fd1U, 0xbd04578dbd2d8411U, 0x3dadb4e13c85643eU,
  0xbc22df593d674912U, 0xbcb10d8fbd0859d3U, 0xbb22dbf1bd9c8bb3U, 0x3c7b5d40bd2d0b0fU,
  0xbd802ff43dab15bdU, 0x3d7c7c99bd07316eU, 0xbd6fd108bd2b8a9eU, 0xbda6bac4bd88c2f9U,
  0x3db8a5fa3dd817d1U, 0xbd3c76ff3cb82fc7U, 0xbd468c3cbdc66b46U, 0xbdebb550bda89fe0U,
  0xbd1f19c3bcc20fddU, 0xbcbdae34bd62dfb2U, 0xbd3b493bbcddf8ceU, 0xbd61c5cbbd4e0391U,
  0xbdbae699bced141dU, 0xbd7322a43b0cf94fU, 0xbd9a65483da80f42U, 0x3d66b5c43d61b485U,
  0xbdfe1f63bdc19feaU, 0xbc88bbaf3d0e572eU, 0xbc574ae03a96fbfeU, 0x3d6b79693d133db0U,
  0x3c6d505dbdaadf82U, 0xbca5e90cbc0177e1U, 0xbddb772bbe085850U, 0x3d8d3aa4bdd359b7U,
  0x3cbc8bf13e0720a4U, 0x3c54ed2fbe14bf8aU, 0xbe412c933dcc62fdU, 0xbd901adc3d2b0c16U,
  0x3c0d6839bb34d64fU, 0xbca4c88f3d945539U, 0xbddec36e3d779d39U, 0xbc33e83a3db19c61U,
  0xbdcd789c3e15acc9U, 0xbcde4d9bbd718965U, 0x3d0964d5bc24dcbfU, 0x3dc9fc7cbd50a33fU,
  0x3b73526fbe46eaafU, 0xbd9ac885bd2033efU, 0x3de1e1c6bc402140U, 0x3db5c72bbdaf1f1cU,
  0xbd51416abd2aef35U, 0xbccbb0abbb99e3dfU, 0xbb9c554c3e095490U, 0xbd4a26b3bd744b35U,
  0x3dd99f3a3e481855U, 0x3e411802bdcf7a2eU, 0xbe067acabe1a61c3U, 0x3ce467c03e469bddU,
  0xbdf8c06fbba56682U, 0x3d2b66563dccde03U, 0xbe0114f2be16c951U, 0xbe1942d1bc0b6408U,
  0xbe049ce6bdb37e8aU, 0xbd20759dbe1e1527U, 0x3d032523bd96b021U, 0x3c94f6ce3cc4f3abU,
  0x3b352ab23e08eb3dU, 0xbdb6d7173dfe23b3U, 0x3e0155fbbe147a07U, 0xbe7990dcbdcc57c0U,
  0xbdd978b7bd6f61bbU, 0xbdbabd083b00f3beU, 0x3d3f0e153e13335eU, 0xbb53b779bd88029fU,
  0x3d36a7013c2984a9U, 0x3b8ab7c53cbc5d4eU, 0xbc8872503ce0f451U, 0xbdee0367be255055U,
  0xbd6abf223e395c2aU, 0x3e0623963d914063U, 0xbca04af33ddc778bU, 0x3d753243bd7688edU,
  0xbcdbdc713e45c97aU, 0xbe406fccbd97c357U, 0x3de4c2d23ded9f33U, 0xbb282fc83d4c77c3U,
  0xbd7383b0bdbf6317U, 0xbd1a9523bbd73353U, 0x3e3e57023c01fc3bU, 0x3e179240bcfc8776U,
  0xbdce8623bdefcd77U, 0xbd8984c6bcfd75afU, 0x3cd78e2b3e125daaU, 0xbd392c19bdcf1267U,
  0xbda8fff6b96c280eU, 0x3e2eb851bd6c7bd8U, 0x3e095fcc3dded5e7U, 0xbdc3e06d3d4fafcbU,
  0xbe0f007cbbc90485U, 0xbca690933aea9d70U, 0xbdca02973de1cc43U, 0x3ce1ae6f3d05f845U,
  0xbd4357e0bca6d769U, 0x3aece5ba3d9fafbfU, 0x3e075704bc8038ffU, 0x3e00b4f1be3c1afaU,
  0x3d9d02d13bdcb3faU, 0xbcba1a4ebcdb214bU, 0xbbcdd87abd88c874U, 0x3dda3065bdf96751U,
  0xbc2e34253d6cd2f5U, 0x3e05390dbca3328fU, 0x3c103d8f3d207b09U, 0xbcb80645bbff695eU,
  0x3cec6b6b3d568a4bU, 0xbd97efc7bc9d3523U, 0xbd473b213ceb5514U, 0x3dada9ae3c0c28aaU,
  0x3d3530363d2729bfU, 0xbb60201cbd0e2884U, 0x3d3ec8f0bdc3ef22U, 0x3d813306be2566e2U,
  0xbd1552013d3dea30U, 0x3db638343cfc0c1eU, 0xbdb42ad0bcb149a4U, 0x3dbe0b24be4e70fdU,
  0x3d8d4861bdc8ba2eU, 0xbda52ac6be06c3ecU, 0xbdf16121bd89bc67U, 0x3cb1c5a23e13c192U,
  0x3d8f711a3e1438fcU, 0x3dda0dd8bc46fbb4U, 0xbe2f8b0e3e24a52dU, 0xbe091ba5be00d859U,
  0xbd0b91a73e1dbf68U, 0xbdcb6523bc46fe41U, 0x3e572491bccd8218U, 0x3d9126393e31ba5eU,
  0x3de2b0443e046d82U, 0xbcd56616ba614389U, 0x3ccef474bd0140a5U, 0xbcc210b4bc4e11a6U,
  0xbd83d8343d15e167U, 0x3cc4552fbddaf4cfU, 0xbd23e12a3e200dedU, 0x3d23da313d176a78U,
  0xbc0cfd36bd9f0d97U, 0xbe15a771bd139223U, 0xbd5bd6403a3fa302U, 0xbccdbb4bbd20ea5aU,
  0xbd6b28d6bd1033f2U, 0xbde1bce83e3bb85aU, 0x3d571075bd0e8a55U, 0x3d30a6e9bd1b56c4U,
  0xbbf82e42bd8a073dU, 0xbd13eadd3d90781fU, 0x3e477facbe8ec1c3U, 0xbdc0726fbdf11f26U,
  0x3cee198abe108f2eU, 0xbd74598ebd73d7efU, 0xbd80a2b43c8528b5U, 0x3c545adc3d96d8f6U,
  0x3dd30da1bdcbdf09U, 0x3d094a4abdb13049U, 0xbd44e793bd4eaf7cU, 0x3cf6f097bba04638U,
  0xbdbd34b8bdde7ab0U, 0xbb167d1ebdf5aa7bU, 0xbd9fddccbc9c3432U, 0xbbc3835b3d5b35a7U,
  0xbe1817133d9d31acU, 0x3b730e563b326c19U, 0x3cdc507c3d55ace7U, 0x3c95edfcbb1ac8b6U,
  0xbd113c40bce0dc84U, 0xbddc27713db5cc36U, 0xbd9a83cabd4e114eU, 0xbe06e5953dd1347aU,
  0x3e7a689d3d554faeU, 0x3e5393fb3dd68111U, 0x3d8e3dc8bc95b514U, 0x3e0c4d2a3d884ec9U,
  0xbc51c2b6bca34e5aU, 0xbd4fa7d7bcb37b6cU, 0xbce366c83d5e483bU, 0xbcece7e2bd18f1c0U,
  0x3dc27330bd8b8c3fU, 0xbe1634c9bdfb0c56U, 0xbce13dad3c31f8a6U, 0xbe2aa0ea3e08ebcaU,
  0xbcb7bcb1bc186a18U, 0xbc82ba113c096adeU, 0x3d96f481bd157e4eU, 0x3ced10703c0a0bc1U,
  0x3d0d0f373d2868cfU, 0xbbacfa6c3ca16e97U, 0xbc827f3cbbc5ebe5U, 0xbbde0fd0bdad5920U,
  0xbdfec8213e1774aeU, 0x3e004d1ebd3543f4U, 0x3a98fad73dc8eca0U, 0x3e223cc2bcc120baU,
  0xbca85c5c3dbe0578U, 0xbdace3acbd9dbd1fU, 0x3e26be5a3cfde5b3U, 0xbd505b73bc38246dU,
  0xbb6b1ccfbd97df22U, 0xbd1cad9fbcebddafU, 0x3e01a1b53d420239U, 0xbd38250abd3828f8U,
  0xbdfa3438bd8cd85cU, 0xbcc6bedabd738d77U, 0xbe03678c3e0b655cU, 0xbc0b318ebc84f2eaU,
  0xbe30d3733d835114U, 0xbcd10ea8bb45ca94U, 0x3e1f03cfbcf08cf4U, 0xbe3025fb3cadae43U,
  0xbdcf7506bda1206dU, 0xbd7678493ddf01d8U, 0xbdd94e453e38b571U, 0x3d6074e0bdd64a41U,
  0xbd1e8731bdd55905U, 0x3c9b0d463e1b8cf1U, 0x3d9484b53da50f7cU, 0x3d65641abd1a396fU,
  0x3da143f13d5d5edfU, 0xbc91afa43cf87e31U, 0xbe1b73613e657699U, 0x3d3985263d2905c3U,
  0xbe276f953d9d4e7dU, 0x3dd6df4a3d78807dU, 0x3d96a14b3e5acbfcU, 0x3d171034bd50208bU,
  0x3d8a02aa3d9874c0U, 0xbe75f9c43d0ec567U, 0x3e404b1ebdf2bd13U, 0x3d3f0494bcfa14e7U,
  0x3e020e31bc3a9a31U, 0xbe21783b3cc3b458U, 0xbda09a57bb4a9d97U, 0xbd230309bdc75becU,
  0xbdcda6e23e37e081U, 0xbdccec483a2effcfU, 0xbe13a3d03d9fe725U, 0xbd9f987bbc6da1d2U,
  0x3e45de3d3e16f854U, 0xbccd0e3bbc6d20b6U, 0xbe0b18cbbdd2ed0cU, 0xbdcc4afc3e3c0474U,
  0xbe3e6ba73dee4088U, 0xbbd54ba13c760b92U, 0xbd728009bd251598U, 0x3d09bc163cf5796dU,
  0x3e1c190d3d151163U, 0x3dc5de343d144af5U, 0x3dae405bbcbe62a5U, 0xbd9514e2bdd1e5f4U,
  0x3d4bd70ebc70bb78U, 0x3e229021bd76c590U, 0x3d1d2d3b3b696c5fU, 0x3dc1365cbd33ec1eU,
  0x3d8137b73d9c76a6U, 0xbe04c87cbd3308faU, 0xbd01756abdda5d3eU, 0x3c09f6a43da8a711U,
  0xbdd31cf03c9782bbU, 0xbd69e16a3d1edf8fU, 0xbd238ce8bb0f66c8U, 0x3d06e5c5bd880019U,
  0xbcabe139bdb4fcfaU, 0xbcbb8c98bd863a27U, 0xbde9ab7bbd0b5ab6U, 0xbcff8db5bdfc27efU,
  0x3c738f8abdc22eb4U, 0xbde9619fbd730f67U, 0xbdddaedf3d965d98U, 0xbd6b05e73d9d560eU,
  0x3c6916433ce39a60U, 0xbd5feda0bd522083U, 0xbde03d413d8ecdfcU, 0x3dfc26f1bc72489dU,
  0xbcf3b2533e0b95c3U, 0xbd32aa32bce7fcf5U, 0xbce312463bcf8a7fU, 0xbdb2f4283e09653bU,
  0x3d3179b63c180dcaU, 0xbd8e24efbc527921U, 0x3d6a151dbdd04362U, 0xbc54b9883ca544e8U,
  0x3acfb9ebbdc66fabU, 0x3db6b0853d6616a1U, 0x3be706fd3e0d2022U, 0xbc80c535bc205a1fU,
  0x3d4adf74bd0b920dU, 0x3d3ff1cc3d846817U, 0xbcfc001ebe075304U, 0xbd936d373ddc51fbU,
  0x3da016813e5aa356U, 0x3af8c52cbc126db0U, 0xbde4ebd6bdaa0341U, 0x3bee17e93d4dcce1U,
  0xbe0b3f0cbc986fa8U, 0xbd9d403cbd5af3cfU, 0xbc73cb943d68ac69U, 0xbd36c8ec3d2feefaU,
  0x3e6ca9b1bcf4c477U, 0xbe1882a53d094b39U, 0xbcc8bdb53cdf2511U, 0xbd6322bc3d212d29U,
  0xbd0b4c44bca7f9b6U, 0xbccfc9fdbe0762f6U, 0x3e38f55ebd11cbeaU, 0x3dedf1643d971122U,
  0x3e371abbbe0ad722U, 0x3d9853b63e068e94U, 0xbe1df4c3be0061daU, 0xbdb151f33d22cf00U,
  0xbe20d20f3d16c226U, 0x3dbae767bd85d656U, 0xbd6170813c955efdU, 0xbc985411be48b423U,
  0xbc76266bbc8be1beU, 0xbdeec2aebe17640eU, 0x3d91cb4cbdce1525U, 0xbd6cb5af3d943362U,
  0x3cf52154bdc27cc5U, 0xbe01164b3e1d04c0U, 0x3dc4206c3dca3d3eU, 0xbc93b43b3e14dfd1U,
  0xbdc038e9be263ebcU, 0xbd891bdb3b95dc51U, 0xbd7398263d8f9d5bU, 0xbcf824bc3d935748U,
  0xbd8631373d693d9aU, 0xbbd46f243d598780U, 0x3dbf55803e1153b6U, 0x3c99226abd1117c9U,
  0xbdbe7c3fbe3c4c82U, 0x3de36f733dde2455U, 0x3c0d9b113db49364U, 0xbd081b5dbda9e0a4U,
  0xbdada099bd3d9012U, 0x3bf5ecdbbd24e3aeU, 0xba6a51373d3c8ccbU, 0x3da23b223d910c6eU,
  0xbd9d433fbe0e9e58U, 0xbda9a818bd02f67fU, 0x3d7c89113c614da0U, 0x3d64fe50bc4325c6U,
  0xbc0f4ba23d2d2d6fU, 0x3d966d8ebdcdcaddU, 0xbe4d7eeabdaac588U, 0xbd18050fbddaa662U,
  0x3e2e91463cb759e9U, 0x3d7afa8fbd11f9ecU, 0xbe15de47bc884af9U, 0xbd1de6693de42ac3U,
  0xbaa4ffbdbbc3425cU, 0x3daac1273e41ae8eU, 0xbde82dadbd64c023U, 0xbcfdc660bdb0de4bU,
  0xbd12a1023d883ddbU, 0x3b946f1bbe225012U, 0xbbf1b6d53dcc0c54U, 0x3cb9a925bdef48a6U,
  0xbcfbe93e3cff1debU, 0xbc2ae45b3d31074fU, 0x3d4e0542bd28915eU, 0x3ba3e907bdc0b7ccU,
  0xbdff60e43e0aad74U, 0x3e2284aebdbbd606U, 0xbdc21762bd036058U, 0x3d8480573daa0266U,
  0x3e496f37bd165651U, 0x3c9baccfbcc74d7fU, 0xbdbb47bcbdcebfaeU, 0xbdf104e2bb99231bU,
  0x3dbd2b663dc13ecaU, 0x3c80942dbdcd3be3U, 0xbde30ad43ca346d4U, 0xbc3f07d83e0ba65dU,
  0x3db2118f3cc39fd7U, 0xbd5299c43c24d49cU, 0x3e3daf09bd1a9710U, 0xbda051733da7a2b5U,
  0xbda784f63e0514ceU, 0xbdf31f283baa9f65U, 0x3dca4a18bd4c204fU, 0x3d88d0913da8ffa6U,
  0xbbcd3b03bd9b2382U, 0xbab3e5483cd2e99aU, 0xbdb6aafc3b26c285U, 0xbdbfff1f3b752452U,
  0x3c20b4b53dd15485U, 0x3e092d21bdb235c0U, 0xbd422b89bbd318f0U, 0xbd1e94d93e26ac45U,
  0x3d264ae7bdc5b05fU, 0x3cb9e0e13db6a38cU, 0xbdb81867bd709961U, 0x3c9d362cbce2ca48U,
  0x3e0f9470bd51d7c6U, 0xbdad02fc3cc01265U, 0x3d357cc1bd8d788cU, 0x3d608d903cabaa77U,
  0xbdba655e3a9c3bb2U, 0x3d89900dbd34567dU, 0xbd87a168bd81adfbU, 0x3e2e8bfebe0789feU,
  0x3d09f0053d12882bU, 0xbd818f29bd168feeU, 0xbd6f399d3d9c66c7U, 0x3c7db3943c5f3b84U,
  0x3e01d634bd08f026U, 0xbd51e7c53d753237U, 0xbce72970bdf2cc99U, 0x3d4a6fa73d5e5756U,
  0x3d10f3bf3d55bfaeU, 0x3ddc7a78bd0fa657U, 0x3d83f7693ce7dfe1U, 0xbe2348383d8fbabaU,
  0xbdedf65d3d161f90U, 0x3cc8b551bd126b6eU, 0xbdd1feb2bd197217U, 0x3dca90c63d29209aU,
  0xbd3e51443e33a2e7U, 0x3bbb803c3dcd33d8U, 0x3dadc320be04208bU, 0x3d008f9c39cd8a09U,
  0x3d4f13de3dc8a268U, 0xbcc719e03d09c361U, 0x3dbd211e3c9da2bfU, 0x3d1914a0bd672041U,
  0x3cb79feabd47b364U, 0xbd002fa93e6a7f2cU, 0xbd75d11c3dbf424aU, 0x3b79ad4f3d1254feU,
  0x3c1887873e55b0d2U, 0x3d7641673dc58b28U, 0xbd436dca3bd89593U, 0x3def3dc7bdc7a125U,
  0x3d970ed6bd849ef1U, 0xbdbff158bdaeda40U, 0xbcda6b0c3d21272bU, 0xbc4da144bd31ba27U,
  0x3d1427edb9cdd3e3U, 0xbd3c91693dd1d791U, 0xbce11e8ebbdaee68U, 0xbceca793bd1bfe46U,
  0x3be05f363d9cb23cU, 0x3ca92e8b3d2efdb0U, 0xbe008458bceff568U, 0xbd7d1886bd8c22f8U,
  0xbced578cbd7439aaU, 0x3e12777abd87469fU, 0x3c81dd0c3d72e4baU, 0xbd6057a43dc06aefU,
  0xbb1284b53dc0fd58U, 0xbd36e74b3d1116a5U, 0xbb04d5ee3c8a5a60U, 0x3e279c7d3d3ea7caU,
  0x3c8a3cc63d3346fcU, 0xbd5710fa3d48c8cfU, 0x3d0af85e3cb8832fU, 0x3dfd90f03da55515U,
  0xbe2e3c80bda7b85dU, 0xbd638c073cc84f5fU, 0xbdb2aeb0be02ffceU, 0x3d6f00823d14c78cU,
  0xbbace8663cdff2fcU, 0x3baba3c0bd93f49fU, 0x3d8935b3bc768627U, 0xbdacdd3b3d4e5815U,
  0x3c53c456bd18fee7U, 0xbd3a5f443e12279aU, 0xbda1c7ce3d810811U, 0x3d52035f3d7b47baU,
  0x3c8ad2f3bb84e699U, 0x3d6593f5bd8f6605U, 0xbc8c8559bd847c28U, 0xbd5dd463bd96b729U,
  0xbc55ee7f3e17f371U, 0x3da589873d62ce47U, 0x3d3a9e6a3d00da61U, 0xbd9033b4bc8a4be8U,
  0xbe202913b965bc03U, 0xbc989a693dc08381U, 0xbb4f80ecbe046613U, 0x3dcfbd80bc8d8197U,
  0xbba94519bdaed3faU, 0x3d53ed1a3d1346a7U, 0xbde19dfa3e0312e5U, 0xbde4da5abd9b37e0U,
  0xbdda9e4b3de71cfeU, 0x3caac5f8bd81690eU, 0x3e4c37973b13f4a2U, 0xbd66701c3dace786U,
  0x3d5e83e03d233ac0U, 0x3d653419bcde4a7cU, 0x3ac029933d1ea209U, 0xbddecc233b891a6bU,
  0xbd14e7b1bd6072caU, 0xbd81cd2b3cc48419U, 0x3bd0d81e3e1e5b9eU, 0x3d21594bbcc14e06U,
  0xbd817850bd96f179U, 0x3d8c03333d465f50U, 0xbb0fa2e43d6e196cU, 0xbd03c0803d047546U,
  0xbdbfd1c63e5cf7f8U, 0xbd9ce4983e29105fU, 0xbdc818c4bd915e7eU, 0xbe6238b73d660f48U,
  0x3d1a2e4fbc9c153aU, 0xbd998cfc3db51669U, 0x3e18eeacbd5bd0b7U, 0xbe230d15bd42e393U,
  0xbdc5debfbd2b480aU, 0x3b080e27bd26b20fU, 0x3d146e0dbd7db907U, 0xbe37aa043da2f169U,
  0xbe076cbbbd9d16acU, 0x3dacc068bc81d9dcU, 0x3bff7f873de2a9a7U, 0xbc8d79ee3d7f8b88U,
  0x3d86a3893d3b830dU, 0xbdd554e13c2f1080U, 0x3da4ca96bc02ccd6U, 0x3d5d7b8fbd324df7U,
  0xbc85ccfc3b28114cU, 0x3deb4e3cbe2cca02U, 0xbd7cdc763d12aa00U, 0xbd9fb7493d5609e0U,
  0x3dfdad1b3c3db588U, 0x3dbaabb43d6eebddU, 0x3d33b3713cf020a2U, 0xbd3fd476bc342175U,
  0x3c3bb2543d249c6fU, 0x3ccefd663c235315U, 0xbd2be8cfbe2042a6U, 0x3d187fc0bd26df42U,
  0xbd4bbd623db9ead1U, 0xbe2175adbe063110U, 0x3d08733c3cff9c94U, 0x3d7f2a7bbd94076bU,
  0x3d3403273dd93eedU, 0xbdac32a43d7106e1U, 0x3e16d1f4bc4a1ab3U, 0xbd5aff2ebd5eeb80U,
  0x3d0a275b3df72104U, 0xbd904fafbde3bc54U, 0x3da2feca3d766f8dU, 0xbbb8ff33bdca582dU,
  0xbcfdf5033c95b113U, 0xbc9267b4bd0514eeU, 0xbccc93263d83e2e6U, 0x3d1f22acbcaf7b35U,
  0x3dcfa6ed3c20713aU, 0x3cf9b57a3b24005aU, 0xbd180a4d3e259660U, 0x3d969e74bcd64cc2U,
  0xbc074f37bc66fdbeU, 0xbe0c750dbd22d9ceU, 0xbccf0125bdbab2bdU, 0xbb9c6c873da6c5fbU,
  0xbdbedc4f3def2ee0U, 0xbc93ce093d406020U, 0xbdff78853d0be918U, 0x3d80ee053d87b865U,
  0xbb8cca53bcba0f3fU, 0xbd750964bcd48ab4U, 0xbca43dc53d17ec3dU, 0x3d796522bd921692U,
  0x3dd7e4febd3455c9U, 0x3dc84bff3d3e4993U, 0x3d2246afbe01f494U, 0xbc651adbbcda0ad2U,
  0x3c2e61a3bce90a65U, 0x3c8d2645bc8ddf48U, 0xbc64c75dbb3b88b1U, 0x3d886447be244886U,
  0xbcefcffcbcffb63eU, 0x3bb3334bbd048ea1U, 0x3db2e0433c4d6503U, 0xbd1b6e1f3ddaaaa1U,
  0xbd9563dbbdbb9b67U, 0xbd346f903d83f016U, 0xbd8483a9bd52513aU, 0x3db440883b3a2951U,
  0xbd0832853d234c87U, 0x3b6e91d0bda1cb9eU, 0x3e0577033de788e0U, 0x3c247e32be014352U,
  0xbddd1b0cbcd94824U, 0x3d258b61bcdf67e0U, 0xbd4ae7b03d3c54d8U, 0xbb1363abbc600be3U,
  0xbc1acd0fbb7e5413U, 0x3d880c9e3bd5a15fU, 0xbbd7447f3dfb8263U, 0x3c6a114b3a835722U,
  0xbb36b154bd962269U, 0xbb88427dbd121c9cU, 0xbd935fb33d39ffd9U, 0x3da88300bdc217d3U,
  0xbdc07e2a3bb4e705U, 0xbbe849a83d818e0cU, 0x3ddd2c97bda92db0U, 0xbd8be8563d966099U,
  0xbd71b9c83d003d57U, 0x3dcd1e43bdb4a578U, 0xbe1a68353ca253c4U, 0x3c981123be1ab3c7U,
  0xbbd16e513cae4dffU, 0x3d9dd1d03cd514c9U, 0xbd3812cf3b499cdeU, 0xbd86d7bfbd511ad7U,
  0x3d69666fbdf09084U, 0x3d58cd113d2f0061U, 0xbc815bd83e1d41baU, 0xbcec68b83d603463U,
  0xbd84eb483dfa49faU, 0x3d0cc0053c4b570cU, 0xbca182083de4504fU, 0xbb092a153bc68c4eU,
  0xbd0a59873ce3f936U, 0xbe0411603d9d5a2dU, 0x3c46e1093e272c5dU, 0x3d393ae2bdc7cbf4U,
  0x3cbbc1eabd4ba206U, 0xbdfd663abc91507cU, 0x3b18ee2cbe0104f5U, 0xbdfa4e41be18a47fU,
  0x3d881231bb86d45dU, 0xbcc85c67bda2fb9cU, 0xbd98233e3d79a1efU, 0x3d6cab98bcac9998U,
  0x3ddb66d23da5079bU, 0xbd17517fbcb24afbU, 0xbceeb9d33dc177e7U, 0x3cbe0074bc2e20eaU,
  0xb97c8b553dce539fU, 0x3d4074b2bc98cdf4U, 0x3d4c2a2abd13b979U, 0xbb8631dc3d81971eU,
  0xbde33b6ebbcb4fceU, 0x3d3926783d656d81U, 0xbd8732ffbd6235feU, 0x3beda174be194579U,
  0x3c8446913db92273U, 0x3d192c29bd5a1fafU, 0xbaf341923d6627deU, 0xbd568460bca134f8U,
  0x3d53705ebb990388U, 0xbda14d843da54d2fU, 0x3dcdaeddbd5f099bU, 0x3d22a918b87f129fU,
  0x3df0b4a6bd98c03bU, 0x3d4a3fecbd1d4b46U, 0x3d266b00bd0e504fU, 0x3cac3224ba83e8fdU,
  0xbdae48473dc09f39U, 0x3b0437d5bcaf57b0U, 0xbcbe03293d042119U, 0x3c4ad866bd7c84e1U,
  0x3dcf18d43dc674e3U, 0x3e0a7f0dbbf199bdU, 0x3ca332c9bd00e5d6U, 0x3b875f4e3e10aea0U,
  0xbd818cdb3d0d7762U, 0xbda26665bca73f3cU, 0xbd871f05bd101ab3U, 0x3dfa4b1bbc3baccdU,
  0x3d6031533bce2d25U, 0x3c7e9f77bcb39688U, 0x3b3f9da1bde7d941U, 0xbc2f03463d4b17e7U,
  0x3d017759bd196df7U, 0x3c0b70e23de44203U, 0xbd262524bcafc1f2U, 0x3dbe816abd34614dU,
  0xbd54e1623dec8a20U, 0xbe0fae47bd45eb26U, 0xbdb496093d548a8fU, 0x3d2aa5433d230260U,
  0xbd598f90bdc91fbbU, 0x3caa17573d811751U, 0x3ca58a9f3c7eb78bU, 0x3d4d1535be333a90U,
  0x3d1ed395bd5ed3b3U, 0xbc4639c0bd40e091U, 0xbd581b6cbd94372aU, 0xbdad02583e0f6feeU,
  0x3d6fc9d03d41fd66U, 0xbc1d6d77bdb34494U, 0xbce5b0e2be227482U, 0xb9e36e18bdcf940cU,
  0x3d17042e3d71d88cU, 0x3ce081063d7d3360U, 0x3e2e144dbd86c68dU, 0xbe02323cbc8b47bfU,
  0x3d199ed03e3f3904U, 0x3c6449b83cfd95f9U, 0x3c18d0093c462b67U, 0x3cf5eba03c60e88fU,
  0xbe03d5e83d2df062U, 0xbd80ce9d3ca9fad1U, 0xbda0e5123df8d4d2U, 0xbdc416ff3dcaad1fU,
  0xbc563930bdcde6f7U, 0xbcbb33adbd790c31U, 0x3da156b43dc1e43bU, 0xbcb93e7bbd3e7606U,
  0x3b5af9f33d6201daU, 0x3d2739bd3c5c6573U, 0xbd9e2659be17d2a5U, 0x3d484a20bc02d4bdU,
  0x3c5fe3403d82ede3U, 0xbd55e154bd58fef5U, 0xbe789a693cbbf45bU, 0xbbf810a33d98d300U,
  0x3d582343bd1c0270U, 0xbc30e59fbdc29a9dU, 0xbc77807fbd05e34fU, 0x3db5e100bd0d1471U,
  0x3dac6a1dbd85f8aeU, 0x3dd79db5bdde0ef0U, 0xbd09857e3e1360acU, 0x3ce2b12fbde25a15U,
  0xbd2c0ea53df54e22U, 0xbe0dafccbd5ac8e7U, 0xbd0666a93c5790c4U, 0xbd9da6273d38ac69U,
  0xbdcf9d31bbfe806bU, 0xbd900e95bd989c79U, 0x3cc43d47ba6a9d21U, 0x3d34c692bde82a89U,
  0xbdea8f7fbdf51f12U, 0x3d7e87c3bd9548dcU, 0xbdfa1484bdb77568U, 0x3db3fa85bdf9cbbdU,
  0x3d2d75053d87d419U, 0xbd37e999bd8bc293U, 0x3d2e5158bb7b0adaU, 0x3c7b988a3d9c891cU,
  0xbd8257a23e32518aU, 0xbbc969e9bc7dc43aU, 0x3db8c0593d17f3b3U, 0xbe0d98fc3da29b05U,
  0x3d8e87543dd5d29dU, 0xbd4a43f3bd938d3dU, 0xbd022ef33dfda5c2U, 0x3d01d0243d8af509U,
  0xbe12f9d53d45475dU, 0xbd7b94a1bd551180U, 0x3ddb600bbc1cc621U, 0x3ce980353d048901U,
  0x3e0d75633e2978e3U, 0x3d916938bbf1b653U, 0x3cd85873bc7f8432U, 0xbd980e4c3db497b5U,
  0xbdebddbdba761ca8U, 0x3d4347b6bc202be6U, 0x3c6693f13c05e6f4U, 0x3c553438bcd6f25aU,
  0x3c88be46bc7ada09U, 0x3dfea1273b5454a3U, 0xbd9865573d0be598U, 0xbd461e1bbb1b2e54U,
  0x3dc97055bd45072aU, 0x3d405cde3c770397U, 0xbd83964ebdf7057eU, 0xbdc7d0bdbbc2063dU,
  0x3cfe29713da5f8c4U, 0x3d2ece29bd789d32U, 0x3d6107a4be04a40aU, 0x3d3d5a86bcb1f175U,
  0xbc8d09613dbe5db4U, 0x3d6ec9613d051663U, 0xbbf0e7a4bcfe7b98U, 0x3d20c16f3dc014daU,
  0xbd85aead3da62279U, 0x3cca08a4bd8f3ea7U, 0x3da3b49fbdae330eU, 0xbd2c30ef3c8bdd3bU,
  0x3e02f2c4bdee8d3fU, 0xbd8b230dbd286412U, 0xbc30988e3de742baU, 0x3dc12cf93e178219U,
  0x3be99be03d188959U, 0x3dafb492bda03148U, 0xbb153c76bd872980U, 0x3decb08b3c94f5acU,
  0xbc0dceafbcd4e10dU, 0x3d4d0a363d2ee414U, 0xbdc03201bdfa0e9bU, 0xbde5beefbe16574dU,
  0x3d56664a3d01ee4bU, 0x3ce314fb3cafc0a5U, 0xbd5d42943dfcbe1bU, 0x3e04b83bbd9d4645U,
  0xbd5c152b3dc2350bU, 0xbd5a5eb0bdc14d54U, 0x3df51100bcc69a88U, 0xbe0cfa6a3d8d69bdU,
  0xbdbcede0bc3629fdU, 0xbe349aee3dc15cf5U, 0xbcc94d74bc0a92ffU, 0xbbcbe1e6be064823U,
  0x3d7a225ebdac0e8bU, 0xbd38f3a1bda98667U, 0xbc5174673d2ac653U, 0xbdcd2e59be4b403eU,
  0xbdc72fddbc68098cU, 0x3e3d62f1bdbfa109U, 0xbe21cb863c9137d4U, 0xbd1596253d824ee6U,
  0x3dcfe275bdeb5115U, 0xbc1a40f0bd70606cU, 0xbc3c44863a8aec0cU, 0x3d3d645d3af54010U,
  0xbcd6b8623e3fc7e8U, 0xbda63d44bddb943fU, 0x3c97fe0dbc9a2ab6U, 0x3b35ffba3cdac1f3U,
  0x3e16e663bd6e26a0U, 0x3d21a2473dfabbc5U, 0x3caea1ac3d4bed18U, 0x3cf35602bce4524bU,
  0xbdc76f5b3db41fdbU, 0xbbfe3840bd3326f9U, 0x3d45dcb1bcbba4bbU, 0x3db280283d468203U,
  0x3d8bd4353c29c019U, 0x3de0cf12bcf50870U, 0x3cc2a7713d4e2747U, 0x3dd7ae00bc35f67bU,
  0xbe24c2ebbd3d9e8eU, 0x3d3efb1fbd5ae4d6U, 0x3c2dd4ef3d5cc645U, 0x3c14b6843cb698baU,
  0xbcce4081bdcbd1d3U, 0xbd0633fd3c831f3fU, 0xbd81165fbd90d67cU, 0x3ca82a6f3d369d24U,
  0x3d9e4428bcc7fe7fU, 0x3ca46e17bd500f0cU, 0x3ded322e3cba5403U, 0xbc492a4fbe088bc1U,
  0x3c886e033da09227U, 0x3cbbf25dbcea4b3eU, 0x3d2ab97dbd9865b1U, 0x3d45d5acbdb4e14bU,
  0x3c3e10233d98cbcdU, 0x3dc331393d0ec228U, 0x3da4de67bb2b1cecU, 0xbd45504abd5609eeU,
  0x3e37dd22bdf7f8daU, 0x3dcb4532bdd13ec0U, 0xbd19f5fcbcd5df5aU, 0xbcd22917bd73ffeeU,
  0x3d59beeebd21aa86U, 0xbd3d5d1b3d0d4d70U, 0xbd4cd68dbd92bf0dU, 0x3db5f108bd839f7eU,
  0xbd8037b9bd78236cU, 0xbd348cae3cf69175U, 0x3a5e11593d333f5bU, 0x3d8483eb3d8d6c96U,
  0x3da8a438bc72724cU, 0xbd290a63bc303012U, 0x3df49c1f3c44b9f2U, 0x3e269f79bd3d7e0fU,
  0x3c0359823dd70643U, 0xbda90becbdc3b166U, 0xbcf599de3ce5157dU, 0x3d8f606e3d4ba325U,
  0xbdc9b15fbc544e3dU, 0xbc478ee53da4dee8U, 0xbc96f666be2b9f3aU, 0xbd19e3d13ce8ead1U,
  0x3d684954bd864da5U, 0x3d73289fbb8b89e3U, 0x3dad69c9bd77dd61U, 0xbdb4e4023bb51201U,
  0x3cec3a19bd843c50U, 0xbde5c36abd688182U, 0x3d6efa41bd2b5451U, 0x3c84d8d7bd8102a2U,
  0xbdb8df753d3486dfU, 0x3e34affbbd9e5737U, 0xbdaa1bd53d360954U, 0xbd413df53cd83b07U,
  0x3dbba481bddf0c15U, 0x3ddf8a2b3dd4f579U, 0xbd8fc8f53d9302d9U, 0x3c6642373e3d81adU,
  0xbca59746bde04dd7U, 0xbd2b94f23dd898e7U, 0x3d2effb83cf6060aU, 0xbd0267a5bddefdf9U,
  0x3c45515f3d1a122cU, 0x3d0a356c3b60230dU, 0xbc83c2863d757bdcU, 0xbc3a42f4bce91eb2U,
  0xbbb2aab83cc53144U, 0xbdf979b53dd35ee9U, 0x3e233f103d10e06dU, 0xbcbdb575ba736d7eU,
  0xbdb252ef3db743f6U, 0xbd02f2f9be230409U, 0xbd974c343d10baefU, 0xbe4d885fbe338a23U,
  0x3d3a6a3d3da41f8bU, 0x3e28ddf83dd17011U, 0xbb3607733d220118U, 0xbde0ffcdbd6a38a5U,
  0x3d3c30f13da6b009U, 0xbd0450dcbcdf40f3U, 0xbdbdf91bbd1a77c1U, 0x3d848301bdab3dc3U,
  0xbced60173db114cdU, 0xbe110878bd8f65bdU, 0x3e407955bd78821bU, 0x3d3e6674bd2fc22bU,
  0xbcd26dc8bc17e485U, 0x3d58c395bbd08e90U, 0x3df30a07bcaac920U, 0x3d43b25bbd6ac41bU,
  0xbd44cbbe3c32cc36U, 0x3caf52efbd83a914U, 0xbe0fdc3ebe096fc5U, 0xbd84e23b3c15f3ddU,
  0x3de1d9ffbc74526fU, 0x3e13560b3cd9d527U, 0xbb401e9a3d62a737U, 0xbd9db0b13dd3afccU,
  0xbd3b8375bd033f92U, 0xbdd78615bd056cd8U, 0xbdb9d98c3def5b82U, 0xbdc6f670bd9e664cU,
  0x3ca1a8b13dfc10ebU, 0x3a8f48a1bd5ec1ccU, 0xbc73ad37bcb42178U, 0x3d6f82b33d7d439fU,
  0x3e0397e8bdd4eddfU, 0x3d63121dbd00b69aU, 0xbd807ccbbd8bfd76U, 0x3d4e4b3a3d435efbU,
  0x3d89157f3bcc4baaU, 0x3d361459bce98095U, 0x3de84a60bcb50833U, 0x3db161c8bdaeea46U,
  0x3d1071fdbd03eb41U, 0x3db982d33d623704U, 0xbd3782f0bdc54504U, 0xbd88c4c23ba506e6U,
  0x3c434bbf3cefaaf0U, 0x3dbd7324bc340230U, 0x3c0a03bf3e07c7faU, 0x3d85713bbc36bbd5U,
  0x3b05f1a83c2b1e3cU, 0xbbb94acabd67dcc5U, 0x3d7ca60d3df21d28U, 0x3cb7f93f39a42a8fU,
  0xbda65a01bd7f2474U, 0xbe24afcf3ab3bb68U, 0xbcc0dbc63caa90e0U, 0xbcb6bb03bdcbc722U,
  0xbb3aaa463cf16b59U, 0x3cc312d2bd9ff737U, 0xbdb9d08bbab7093aU, 0xbced43b53e0f94fdU,
  0xbe294318bb9eb890U, 0xbdfdb431bd539d67U, 0x3cc01b30bc53f766U, 0x3cf81e0c3c6ef7aaU,
  0x3dd6ba933d955846U, 0xbda13efb3d4a7dcbU, 0x3c033c15bd1d884cU, 0xbda6ce82bd37684bU,
  0xbcd4027ebd70e16cU, 0x3d1a56363cb8cdc8U, 0x3d86f068bc36199fU, 0x3d822f6f3ca74dbaU,
  0x3e0c3039bdf17d0eU, 0x3dcc1c4cbd24dc1fU, 0xbd5c9b353cbe9901U, 0xbd987f97be07eff5U,
  0xbd49bd073e0f408cU, 0xbda166e4bd6b5feeU, 0x3d6810063d9626a5U, 0x3daeb3883c9ebff0U,
  0x3dfc9170bcb14d31U, 0xbd7273163d1cb299U, 0x3d13092cbc9fa5c8U, 0x3c83d6c1bdf393e0U,
  0x3c80876d3def9fb3U, 0x3d1010d9bd945f29U, 0x3d83768d3d4bcac5U, 0xbd76bdf9bd02c954U,
  0x3d4a122e3dd2d0b3U, 0xbd43ddebbcca84c0U, 0xbc8a5abb3db1067bU, 0xbce3ecf7bd9ad612U,
  0x3ca2836a3c54c788U, 0xbdb275243d2bbc80U, 0xbd186f45bda08e98U, 0xbd06eea33dc89d01U,
  0xbc9bfcd03d26c986U, 0xbd62299d3b363db1U, 0x3ad690a7be5885c5U, 0xbd215eb9bcb1b4ffU,
  0x3cf875c63e054f9bU, 0x3df60f01bd79f33bU, 0xbdb66b56bd4e9651U, 0xbd9d5eebbe4cee8eU,
  0x3b9c0d5b3c99bd20U, 0xbe35202fbe16a67aU, 0xbd53ed97bcb4836bU, 0xbdd74b01bd79c743U,
  0xbbe63918bd6946b4U, 0xbd25ff17bd913cf3U, 0x3e1302733deab620U, 0x3d80dbc13e2d8da7U,
  0x3da021d83e0a054fU, 0xbd3f9526bcda9ad0U, 0xbdeee9d8bd0178d9U, 0xbc0f69a93d1a47f1U,
  0xbd477f8e3dcad8ddU, 0x3da226c13c703b21U, 0xbe0de7603e21ae8fU, 0xbd84d4d8bc022662U,
  0xbd393e3ebbb4e523U, 0xbdb4f4873e1239eaU, 0x3ce4c252bcc007d5U, 0xbb6fd8dd3dda0eacU,
  0xbac05206bc4179f7U, 0xbd87b0d2bda0a53aU, 0xbde95dca3b8234f2U, 0x3d4024583e004502U,
  0xbb4821b4bd862074U, 0xbcfa74e13dcd1165U, 0x3c89ef853d3260feU, 0x3c3e0d96bbf1a5d5U,
  0xbdadce40be28f93dU, 0xbd886ca1bb90eb96U, 0xbdd3e2eb3d850b25U, 0xbc2b59ddbe13ba67U,
  0x3cfd646fbc3dfa6bU, 0x3d9b940b3d07bdbdU, 0x3d82848b3d29f4d3U, 0xbc3c7abe3d2a6e81U,
  0xbd5853e83cc5b820U, 0xbd6ad22cbd05107aU, 0xbc19e208bcfba78aU, 0xbb8f65b43d87452bU,
  0x3c0732c83d853817U, 0x3d7853113a4b1f03U, 0x3dd1eaa3bc658f09U, 0xbd749f983d955ad1U,
  0x3cea27393d5a88bdU, 0x3e1ba62fbdcc5d58U, 0xbd9f45db3dda53c9U, 0xbd6d4f163d9527bdU,
  0xbde512d53d70e20eU, 0x3dedfdce3ccce36dU, 0xbc0381a5bd653b5dU, 0xbdeb94db3d362944U,
  0x3d6f11473d3cd0b1U, 0xbcac5b3e3c8ad0b6U, 0x3d0512bc3dd5e8e9U, 0xbd2a6e0ebbcd83acU,
  0x3d02e8303cbb3f9eU, 0x3d8364e9bcd592deU, 0x3d018ebbbdcf2ac0U, 0xbd4a8336bdaf939eU,
  0x3c354b6abde7cd00U, 0xbddc34d03c85eadbU, 0x3d8e28e3bcccdb74U, 0xbcdfb2f23c2f9342U,
  0x3dad55b4bd167f21U, 0x3d091b17bdd116beU, 0x3d9f838d3c857929U, 0x3d23e6023d12ff2bU,
  0x3d89e9d03dd7f111U, 0xbe2024943dd127bcU, 0x3cb4a38fbba6d4c0U, 0x3d77b10c3c074137U,
  0x3df027bb3dd12453U, 0xbbfbd94cbd318094U, 0x3b9bafa33b8378edU, 0x3c77d67ebd9d6187U,
  0x3db07c1f3df3beceU, 0xbd1a808b3bdb1d0dU, 0xbb4b98e93d5759adU, 0x3c367643bd90c0f6U,
  0xbd90bd70bc08a6f8U, 0xbd228de8bd029ee3U, 0xbe241061bd125a88U, 0xbb987abdbd3e033eU,
  0xbdbd114e3da9ad3aU, 0xbcd9eb623c64c3f8U, 0x3defa40f3d8def3aU, 0x3db4d96abb9a3617U,
  0x3d7cf30a3c2abda4U, 0x3d1f1d8abda7d166U, 0x3d05af99bd1c7b33U, 0x3d8cc62cbdb287faU,
  0xbc8cbb08bd93f5ecU, 0xbe00e55fbde2718eU, 0x3d8acd84be464e28U, 0x3c77dff538e84db0U,
  0x3dc0bf603c7666b0U, 0x3d8f16febc63e39cU, 0xbcc39eda3c76938cU, 0xbe4fb91f3dcc6f77U,
  0x3d8d5fcd3d6c717cU, 0xbd2b039fbcdb3b29U, 0xbc54bdd0bda9f6a8U, 0x3d1b58b33d2d752bU,
  0xbd827a3fbb2e0a33U, 0x3d3aeeabbe19e7acU, 0xbb113aa23d4d1c3fU, 0x3ded089cbd493d4eU,
  0x3d7a0a70bd273af3U, 0xbaafe2383cfb0e09U, 0xbce0781cbdbaff84U, 0xbd885348bdab07afU,
  0xbcc84989bd64b28eU, 0x3dbb3265bd8a220dU, 0xbdfb03983dd65be7U, 0x3c2a441cbcd9cef1U,
  0x3bb660813d6ede71U, 0x3d49c45a3c0ed01aU, 0xbd8515b93d1c1043U, 0xbcd3ed243b919163U,
  0xbd746b6fbcc11727U, 0x3d9b8d03bd3aa77bU, 0xbe166815bd82f2f6U, 0xbc33400d3adaaf07U,
  0xbc7f4fa7bd8dd5b9U, 0x3b774b4dbd629ad1U, 0x3dd894f1bbbcdb43U, 0x3e03294ebe13071cU,
  0x3d8f8ad0bd56f459U, 0xbd4964fabd114eb8U, 0x3d3269383ca5283dU, 0xbc21e9a3bd35d5ecU,
  0xbe58f8333d96e942U, 0xbd3b545fbd900a57U, 0xbd92f37c3dc9cbf0U, 0x3cb97b73bddfb3f5U,
  0x3d386bccbd881bdfU, 0xbd2a452d3d16606bU, 0x3d437ba53dac3cceU, 0x3e0438babbf65776U,
  0x3e1ce65dbd0ff684U, 0x3df2e1403de54aeeU, 0x3dcaee33bc0bcc33U, 0xbd198a55bde33152U,
  0x3cd1dd09bbc100acU, 0x3cda195fbd03b9e0U, 0x3d75a60c3db767bdU, 0x3db78932bc010145U,
  0xbd16daacbe10aa6aU, 0x3b708d96bda02553U, 0xbd033ddbbbc93711U, 0x3de9a44fbe120d48U,
  0x3cc31e27bc85d944U, 0x3dfc6e003d977eb6U, 0x3d1f29753cbcb05bU, 0x3cc3c36d3c467ecbU,
  0x3d8096d0bd945745U, 0x3d8ff3ecbe09ca39U, 0x3e3a9f673da7be2fU, 0xbc8b18423d96eb61U,
  0x3dffeb433ca4b18aU, 0x3d0a89013d15ee97U, 0x3c8b5ca63da2fd9dU, 0xbd307ed63d2836fbU,
  0x3dcd4992bbb8b9c6U, 0xbc9840503d569c86U, 0xbd98f4e9bb56c6efU, 0xbd54a2adbc373a50U,
  0xbd8099a73ca8a565U, 0x3ce8d0b53d98c8e0U, 0x3cb8537d3c83f5b0U, 0xbcc946d7be246b3eU,
  0x3c6ee3233d952a02U, 0x3ccabbf43d72232eU, 0xbbb85a853ca2ce3aU, 0x3babdbbbbe0b0974U,
  0x3cf387a1bd9357e5U, 0xb9a2b54dbc501985U, 0x3cb79dbebdb9be79U, 0x3c95f82cbc4cd2eeU,
  0x3def698abcb6fd7fU, 0x3d35bbe43ddc24d7U, 0x3d2037c7bd2bf783U, 0xbddcb50d37be706bU,
  0xbd907b873db0e51dU, 0x3dcbd245bd20179aU, 0xbde2741abda7480aU, 0xbd8acd29be0934eeU,
  0x3804dea53db42bccU, 0xbc45aa17bdcc8094U, 0xbd2e94813d53347cU, 0x3e154f0c3e017fecU,
  0x3d09f0df396c731bU, 0x3e0d97d0bc1669b2U, 0xbd1cd97e3e2b7ed4U, 0xbd96af88bd8e33eeU,
  0x3c0429c23db2c152U, 0x3cb77db9bd5ede5fU, 0x3cdb4aeabe16d245U, 0xbd2ec6df3c85f8e6U,
  0x3ce132b9bc90141fU, 0x3dc2978d3bef6108U, 0xbe239a533db89519U, 0xbcec5f8fbd9fccfeU,
  0xbdb3b5613da368b3U, 0x3cae56fabde2e3f8U, 0x3e3cc5423d2f0882U, 0xbc8b1be9bd9798d6U,
  0xbd7883103d23ed53U, 0xbce1e1cdbd0d3ebaU, 0xbdff154b3e21d696U, 0x3cc2039bbd00b4caU,
  0x3b87ec8b3d485d7cU, 0x3dcfc1a33cc62276U, 0xbd07dddebe02a84bU, 0x3d3c55e23caeea48U,
  0xbe29620e3b4e5af7U, 0x3c14e40d3ca6a1f6U, 0x3da21a95bd0e99b4U, 0xbc712f873d495af9U,
  0x3d9c6be53d730a26U, 0x3d29cc033d4b3fc1U, 0xbe09b521bd009cbdU, 0x3b1af7d1bd06a359U,
  0xbcbf79cd3d68db40U, 0xbdaf398d3cea244bU, 0x3d3723503e3313b0U, 0x3cfda8583dbd4c76U,
  0xbc091fecbdbd627bU, 0xbda5b0843c94574bU, 0x3d1f1a083c95e249U, 0xbc333596bd5dd664U,
  0xbd76594c3e22f896U, 0xbcccd2a6bdb1467dU, 0xbde0da5e3d8ef197U, 0xbd19e37a3c55c1b2U,
  0x3daf2b453d98b02bU, 0x3de2c792bc7020ceU, 0xbcdf1257bd350c6fU, 0xbc82d6a43c7eb688U,
  0xbdb7f3513dff64cdU, 0x3c8db585bda056f4U, 0x3c2c5eaa3d4891feU, 0xbdad7308bddcb095U,
  0x3d433bf9bdcb3a7eU, 0x3b264057be0ba0c5U, 0xbcd5e1b0bd2289f9U, 0xbc1af89cba8b6b68U,
  0x3e309eacbe391d70U, 0xbd3cc5763ca0bfb6U, 0x3dab9981bdded7b1U, 0x3de87e11bcd0a678U,
  0xbdda5e103deda36eU, 0x3d07fa033d809925U, 0x3e0f1742bce5b4c1U, 0xbd877613bd61ee3cU,
  0xbdabd3dcbd8c6c0eU, 0xbdd1d8a63d0a570eU, 0x3cf51941bdc20a39U, 0xbe29060c3cced619U,
  0xbb2d2ea0bddeeab9U, 0x3d92f43dbd8d5c03U, 0x3c027358bd7c39d8U, 0x3ddc03acbb0efc8aU,
  0xbc92dc6cbda73f73U, 0x3d433a53bcb6fe07U, 0xbd8aa9973d9632efU, 0x3d4227393d9cd8cdU,
  0xbc8a83d23c148b7aU, 0xbd2006dabdf118c1U, 0x3aed060c3cee980aU, 0x3d52e6663d32ad6bU,
  0xbdad019abc2bb291U, 0xbdc91632bda9d83dU, 0xbde91990bd057f71U, 0xba9d8f553d2a23a2U,
  0xbd03d21dbc7aa8d8U, 0x3c97f410bd8f863bU, 0x3d261e3ebb570029U, 0xbd14d0c33d5ea9fdU,
  0x3e20ba15bd6a4a81U, 0xbc1ea86cbd059422U, 0xbd642f45bd41f6caU, 0xbd9608053cdf284cU,
  0x3c1ab2bc3d31de77U, 0xbdc97a10be15fcf5U, 0x3c0bd3573d8dc66dU, 0xbd93bea13db71dedU,
  0x3d57ce4abd9b05b0U, 0xbc4b2595bda2fda5U, 0x3cd9d7a43e0a1486U, 0x3d4a2b98bd7fad93U,
  0x3db6acf53cf5783eU, 0x3df79106bd258ba9U, 0x3ce5e279bd8b19feU, 0xbd889508bd08c695U,
  0xbc23a2353d56b060U, 0x3c5a5026bcd85e30U, 0xbd907c49ba6eded3U, 0xbcbab00a3d0324baU,
  0x3da171b13d7a1040U, 0x3dbb6d92bd4e799fU, 0x3d95a97bbc3f3823U, 0x3d506af6bc8d775eU,
  0x3d9218a33e0cdd45U, 0xbe0b5c41bcd0aa15U, 0x3db7cd06bb77f42fU, 0xbccb437f3c5fba94U,
  0xbb7501d2bdf3b554U, 0x3d13757a3d24f18cU, 0x3e14deb23d67e64aU, 0x3da8f91bbdf291e9U,
  0xbd58d82a3b99c192U, 0xbcbbff02bd228a7dU, 0xbc3818f13ce08c93U, 0xbdebc2073bb08886U,
  0xbcdc61df3d98b257U, 0xbce08dcbbc56f7e4U, 0x3b351e95bc84e0d2U, 0xbce4ffcebdf3a9a9U,
  0x3ce243303d3ea689U, 0x3cfc5e8bbdd4349cU, 0x3b61c7803e0f8577U, 0xbd3b81a33b925a99U,
  0x3e310dbdbdac3671U, 0xba64b206bd985830U, 0x3d2c74c43ba89641U, 0x3d23379e3dc16585U,
  0x3cf41e45bd00d1c8U, 0x3dc6694a39c2a43fU, 0xbcc69bc2bc3ef4f2U, 0x3ddb29f6bd8ffce4U,
  0xbd89913dbe2df714U, 0x3c9f8109bc262713U, 0xbc598258bc1d962aU, 0xbd8db630bca78883U,
  0x3ca45a113d908808U, 0xbd8c1d49bcb7469eU, 0x3e16d8fc3d0ff067U, 0xbd02415bbd9d7870U,
  0x3da0ca253da55f63U, 0x3cfd349d3be37217U, 0x3cc90aa03c00266dU, 0x3d8b8d50ba96df1dU,
  0x3d85b888bd3c294fU, 0x3c7b2faf3cf9a77cU, 0xbd9fe4523c35653dU, 0xbdb3814b3cb7a85fU,
  0x3da68b313cb2ffb3U, 0xbd28a1d6bc770610U, 0xbd3743a23c07a4e6U, 0x3ae2cedcbe0bd0daU,
  0xbdea4b263d8eb9dcU, 0x3da10d7fbcade946U, 0xbc7989a3bd20d2e8U, 0x3dbcc3f13e02bd99U,
  0x3bb394b13df27eaeU, 0xbd1b5db33e029494U, 0xbc2985033b855400U, 0xbd39648f3d307802U,
  0x3e1075913d9534edU, 0xbca98d6c3d13b65bU, 0xbddbf6e5be0ade68U, 0xbd833f2f3d6499a1U,
  0xbba80fb63e08c526U, 0x3db629013da7b97aU, 0xbbd5c521bc469598U, 0x3e09f2a5bd1f8c4dU,
