/**
  ******************************************************************************
  * @file    network_data_params.c
  * @author  AST Embedded Analytics Research Platform
  * @date    Mon Dec 18 11:06:24 2023
  * @brief   AI Tool Automatic Code Generator for Embedded NN computing
  ******************************************************************************
  * Copyright (c) 2023 STMicroelectronics.
  * All rights reserved.
  *
  * This software is licensed under terms that can be found in the LICENSE file
  * in the root directory of this software component.
  * If no LICENSE file comes with this software, it is provided AS-IS.
  ******************************************************************************
  */

#include "network_data_params.h"


/**  Activations Section  ****************************************************/
ai_handle g_network_activations_table[1 + 2] = {
  AI_HANDLE_PTR(AI_MAGIC_MARKER),
  AI_HANDLE_PTR(NULL),
  AI_HANDLE_PTR(AI_MAGIC_MARKER),
};




/**  Weights Section  ********************************************************/
AI_ALIGNED(32)
const ai_u64 s_network_weights_array_u64[28351] = {
  0xbe12833ebe5d7533U, 0xbd0953e33d9f9622U, 0x3be4d33c3dcb2045U, 0x3dd08cfbbc77fb1eU,
  0x3c97456dbd854c79U, 0x3d193414be2a485bU, 0xbd49ca8fbd7fe9a8U, 0x3d123fd73d9a0807U,
  0x3d0a56a6be52afcfU, 0xbd91bf3db9a0b23fU, 0xbcad9a663df22cbfU, 0x3e16a1713b98501aU,
  0xbc99af9ebcb4fb8fU, 0xbc7ee072be4f7fdeU, 0x3c77e618be122425U, 0xbe17684abd88c676U,
  0x3d374601be016ccdU, 0x3d48063d3e204c57U, 0x3de6a459be519ffcU, 0x3d594ee9be1e5f65U,
  0x3cbf052bbd41f072U, 0xbe4f1afcbdeba169U, 0xba4b0f13bdf75ad7U, 0x3de9b9c1be2a812fU,
  0xbc10f2c3bd070b50U, 0xbabc88443d2eab9eU, 0x3e957c9ebcf8cb4eU, 0x3e28d562bd872238U,
  0xbcfd28073e37df5dU, 0x3d5dd7243e1cff3bU, 0x3d9da25abcbb0c05U, 0xbdcd4a9a3bee0441U,
  0x3d955f4a3da20577U, 0xbe1ffa37bd551a2fU, 0x3dbcd2603db06993U, 0xbd2ac526be35e150U,
  0xbe038d263e6b630dU, 0x3ca5c37fbd0c5719U, 0x3bc44f803d3b61beU, 0x3cb5ddcc3dcc191aU,
  0x3c1a2744bd6e7c66U, 0x3db2ae13bc2e0c25U, 0x3e25d0dc3d7873cfU, 0x3c4266013e3fd8f1U,
  0x3c8096523d01d2cdU, 0x3c6ed70dbd844bd3U, 0x3e11d396bc8f489fU, 0xbd97abcd3e1b551eU,
  0xbe58da213d93e168U, 0xbdbbea67bdafcdb1U, 0xbc1d3ddfbdcefc22U, 0x3d2c0a52bb91a318U,
  0x3c2e5fc03e257902U, 0x3e0b558c3e2013a1U, 0x3d6be4a03d3b8a55U, 0x3e6d28363bd73da5U,
  0xbd3c980a3d5325dcU, 0x3d0b1da23c306ffaU, 0x3db0e990bd38b587U, 0xbd955e03bd141a50U,
  0x3e0d0766be257623U, 0xbd70bab0bd699a34U, 0xbe6ef3f53d524d62U, 0xbdb0ce0abd543050U,
  0x3decff46bd9af631U, 0xbd17ecc4beaa1e90U, 0xbe059447bc057adcU, 0xbe021259bd484422U,
  0x3dbc582dbcaf06d3U, 0xbe88700abd0411d8U, 0x3e4a7230bdc3ab6cU, 0x3e2294603cb11171U,
  0xbc12e3903d7662f6U, 0xbb814753bd7ebe6eU, 0xbd39757c3e20511aU, 0xbd1e3e3c3cec93b7U,
  0xbe1144ce3d621499U, 0xbe0aa75a3c917677U, 0x3e78085cbac9e5ebU, 0xbcae1d863d842eb6U,
  0x3ce1af35bd9c7a5dU, 0xbd9a83babd8ffccaU, 0xbdfa815dbd400ddcU, 0xbd8819163e1790a0U,
  0x3d8532143dc669b7U, 0x3da79bbc3e12455bU, 0xbaf9abc1bdc34288U, 0x3df1fe8c3cc07184U,
  0xbd2830ae3be56a6aU, 0x3ddf30173cf37e1fU, 0xbde9c06dbd97895aU, 0xbe35b4ef3d341c52U,
  0xbe85d4863e4aebb2U, 0xbd264154be33e1b6U, 0xbd1fdabebd65a0b5U, 0xbd3b1244be443b92U,
  0x3cb1ce39bd914eb9U, 0xbd8205fcbd3d73f6U, 0x3e578a043b8040ddU, 0xbdf9adcf3d9f79d7U,
  0x3e63b3e93e2f06a1U, 0xbd7017ccbbbe60c7U, 0x3ce20dd939a51e7aU, 0x3df369383d09a12cU,
  0x3d9c2a69bde7b2f7U, 0xbd469a79bdc3b899U, 0xbe2c3b25bdee8e29U, 0xbd57f24d3c46a03bU,
  0xbdbd718d3d2232ffU, 0x3e1dabcd3dee5b1fU, 0x3e2aafbebd3e0e98U, 0xbe74af96be5ea791U,
  0xbe2a0519be5d2fe4U, 0x3e0185a33dae6a12U, 0xbdb3d8b03d82477fU, 0x3e0963b9be0ba7deU,
  0x3d9727923c0a7f98U, 0x3bbd2e32be198071U, 0x3d85305f3d990062U, 0x3e0b3cdc3b3e2c85U,
  0x3d39974bbe038b51U, 0x3e13fd453d867248U, 0xbddfa3233e0b2926U, 0x3de85d5dbdcf95a1U,
  0x3b87f9e8bde387e7U, 0xbd005e4bbe35480bU, 0xbcae4c6bbdf7733cU, 0xbcfe05debd69008aU,
  0x3e2a42183ddd70e1U, 0x3d902724be19aeddU, 0x3e1abed9bdf7c374U, 0x3da618bebd8dd106U,
  0xbcb67bcdbb6753e9U, 0x3baaeb873d84a164U, 0xbd337b293dcb5582U, 0xbc9135febe015310U,
  0xbd851daa3e1a47a5U, 0xbe4a37253d4a4747U, 0xbd4213bfbd11fc36U, 0x3d8876dcbdcafce4U,
  0xbd36d4383daeff83U, 0xbd98c3a83da5d3f5U, 0xbd41599abd5e6c98U, 0xbd8b49bd3c973b8dU,
  0xbe03fbb7bd036078U, 0xbb827144bc8401f4U, 0xbcc56b18be0a1307U, 0x3ddd52a5bd7f4c9cU,
  0xbccd1debbb24ee10U, 0x3e55fc9e3ddb999aU, 0x3e3791d4be5090b7U, 0xbd341752bd6c3447U,
  0xbd3d948cbd644776U, 0xbd05559ebd49a0adU, 0x3e40f9c8be00f607U, 0x3e403212bd862accU,
  0xbc83c1b4bd054bb5U, 0x3b18cb2bbdac0879U, 0xbd64a107bc22e1e1U, 0x3dafff613d9867c2U,
  0x3e43272ebdc611a7U, 0x3d9c1da8be6aabb2U, 0xbdb77849bd949312U, 0xbd5f2a243de29e07U,
  0x3bac7ababc9858c1U, 0xbe358d29bdebf671U, 0xbdaf9875bdc4bef9U, 0x3c8f11fdbd96daa2U,
  0xbda48327be0ddcb1U, 0xbddb20443d6a7c9bU, 0xbd021af7bd005ffbU, 0x3dd58b143d88a073U,
  0x3d7143ba3cdf3925U, 0xbd1f46403d20a850U, 0xbd5fc74abd35fe83U, 0x3de27836bc7d0f5fU,
  0xbd81224bbe411b6cU, 0xbd3a4698bc211f67U, 0xbbfdc1d63dd74ae7U, 0x3d1543043e06dae9U,
  0xbe0d68abbe005459U, 0x3c8363de3c1d989dU, 0xbe83a9643e0b0e1aU, 0xbda1d682be9bf1e2U,
  0x3dc68ec4bc6ed75eU, 0x3e01406bbdb3f822U, 0x3da116efbe3da726U, 0x3d547df3bd929a29U,
  0x3e1f10303c919c4fU, 0xbd1cca8ebdba4f62U, 0xbe0477dabdde4f1cU, 0x3da79e1ebd88b5adU,
  0xbd08c23fbd752110U, 0xbe76c80cbd61740eU, 0xbd6af4a83d61d51eU, 0xbdc45ee9bdeb5c5fU,
  0xbda5b50bbdb2fd9aU, 0xbb8bb1be3d8d9022U, 0x3e5ea0413d8982c2U, 0x3ded1ce7bde64774U,
  0x3df838bcbe2037e1U, 0xbdd62172baac05f6U, 0xbe38eb0d3d16c8baU, 0x3dd82f133d8d3e2fU,
  0xbc948f72bdf19989U, 0x3e1b30a83dd98787U, 0x3a4e2c04bdd4545bU, 0xbe0ef771be519154U,
  0x3a09e1343c484d7dU, 0xbd31fbd63d740d10U, 0xbd8fd65ebdbec792U, 0xbddf23473e20b5c4U,
  0x396870fc3de5cf97U, 0xbd54cb7cbe24c06aU, 0x3c8004bb3c8d2aaeU, 0x3e280593bdb4dfbaU,
  0x3c7fb443bdd4d10cU, 0x3d07a0a4bdbc583dU, 0x3cd8c2233e15ddffU, 0x3d8e33573ba2feeeU,
  0x3d8ed44ebd7a68afU, 0x3ceba015bd03e626U, 0xbe1f0bb3be1dcf3cU, 0x3dcc351c3b915deaU,
  0x3d77eced3df30e7eU, 0xbd2eae60bd31a859U, 0xbe7a7ff0be62b07dU, 0xbe8b06903e26c96bU,
  0xbda58125bd913376U, 0x3e2cca05bd2c152fU, 0x3e8f7b5cbdb0ec5dU, 0xbe44e9d8be029115U,
  0x3d81fbedbd452987U, 0x3e291a7cbe253492U, 0xbdf5a5f53c0830beU, 0x3e2a4d2b3e1ccb25U,
  0x3e2b3990be5424b5U, 0xbce69704bd8d1775U, 0xbd902b8f3d94a7f7U, 0x3dea275e3e3224a7U,
  0x3d861c10be30d76fU, 0xbe006b32bdccdf3fU, 0x3cfbd28c3e4f6525U, 0xbd3f36debd88ed32U,
  0x3e3353a4bbbbdb91U, 0x3e05707ebdc70e96U, 0xbe6308c5be429570U, 0x3de1ee17bd373c93U,
  0x3c74d3033e2b0c4aU, 0xbe44306c3df46b5dU, 0x3d9fb610bd42767dU, 0x3c143b8bbd4d80b3U,
  0x3e35fcdbbd5ae72fU, 0xbe3746a43def645cU, 0x3d66a7233de2f6dbU, 0xbdb7ae883b0eb6d3U,
  0xbd9febc73d0e962eU, 0xbdb17c38be0733e6U, 0x3b2f469e3dfbf592U, 0x3dbe894fbe145afeU,
  0x3e00000abbdb9c13U, 0x3d69cc383d0bb6ccU, 0xbdff2dcd3e4995e6U, 0xbe2c8795bda8384fU,
  0x3d800c5f3b17e74dU, 0xbd992b19be227d9bU, 0x3d51ba80bc6bf6dfU, 0x3dcd0758394108b4U,
  0xbe0136353cd3fa12U, 0x3c918ccbbdf61b3eU, 0xbc1747e2be9e6b5dU, 0xbe2d7fb0be28bd7bU,
  0xbd68761c3dd21f01U, 0xbe2625ac3d2db692U, 0x3e704303bdd8f4e4U, 0x3e1e7069be846ec2U,
  0xbe293f4dbe0d4b12U, 0x3e059643bdd61c71U, 0x3e481adfbd459d9eU, 0x3c94ecc53d2c85e1U,
  0xbca1746b3d081fc3U, 0x3e112d8bbd25c2baU, 0x3c973f28bd471bb4U, 0xbd2353b23d84fce7U,
  0x3e1495a83daad20bU, 0xbd919704be750a58U, 0xbe1c120abe0d79d4U, 0xbe825f383e047c7eU,
  0xbd9e5cecbe278026U, 0x3dfa0e93bdbb84d4U, 0x3e2fe474be0a9443U, 0xbe97e6dcbd9ce373U,
  0xbe9caab6be5dd499U, 0x3e0183533cc14bacU, 0xbcc0d9383cb961b8U, 0x3a4c7ce83d940875U,
  0x3bd1e857bd69a711U, 0x3dfbcfa53dc0433dU, 0xbda313553d93d007U, 0x3d225b5b3e5b3eecU,
  0xbd8f648fbe0b9fbfU, 0xbe583d90be6f207cU, 0xbe492c9b3df95c97U, 0xbe43c1ecbe75ab32U,
  0x3ded1248be0f095aU, 0x3e054f20be613ee7U, 0xbe839a8fbe8b4b1eU, 0xbe647146be560a33U,
  0x3e53f95f3e345bbaU, 0x3cdc86bd3b969720U, 0x3cef868e3d641f4cU, 0x3e8e6e2ebe7b3ae7U,
  0x3e2cfa643d306ee8U, 0xbe0bb3233ea07710U, 0xbd68aca63dc6a5f8U, 0x3e3e45413dc6a39aU,
  0xbdf0f950bdfa5257U, 0xbe3d99de3e7ce005U, 0x3d271473bdcda0ddU, 0x3e048086bd854a02U,
  0x3e0302f7be1f5d5eU, 0xbe1b5439be28d810U, 0xbda5e780bdd02db1U, 0x3e3f351b3e0e1936U,
  0xbdee9d613e1ed065U, 0x3e036c373e36c23dU, 0x3e1652e6bd843e14U, 0x3af18f33be1be413U,
  0xbe64de673e286fd3U, 0x3de41d133e07526aU, 0xbc4d898fbdd8badcU, 0x3ca9713c3d9038aeU,
  0xbd109518bcb9d552U, 0x3e0cc8293d140dccU, 0x3d3b768bbe5f3b1aU, 0x3e020832bd3a089fU,
  0x3decd8ed3e17ad08U, 0xbe13c93cbe409db0U, 0x3e1460c1bc92b7a9U, 0x3d8a12c13d9bd802U,
  0x3e7ea306bd08098dU, 0x3dac99e0bdcbfec3U, 0x3e0260e8bcc2bd27U, 0xbc671b6fbe1003cfU,
  0xbe3b21a73e018c6fU, 0xbe1cc8d4bde7f840U, 0xbe93c9adbe3a5ef3U, 0xbea2a36fbd8737c8U,
  0xbdc4a27ebc13218dU, 0x3dce78c2bd535567U, 0x3d906db3be2daceeU, 0xbe37936bbe8466e9U,
  0x3d496240bd5ff4adU, 0x3e27ca963e868150U, 0xbd26c2fa3dde45ecU, 0x3e3407e2be0879a6U,
  0x3dc7457fbe464600U, 0x3e0fecdcbdbfebc7U, 0xbd9db4583de476ffU, 0x3ded61833e30499fU,
  0x3e3462c73d582975U, 0x3d8a52093c81c95cU, 0x3d1bc9073d82fe79U, 0x3d1aa0473cc4b585U,
  0x3e638c12bd4fa91aU, 0xbd8d1e8dbc72aa36U, 0xbd340d64bd8f91b0U, 0xbd5e655dbdb2f5f4U,
  0xbcc200aabd55c489U, 0xbccc5efbbc8ee16eU, 0xbd0b0c12be0ab8b4U, 0x3dd8913ebdd0d082U,
  0x3df37400bdc58ffaU, 0xbd2a15d83d79bb02U, 0x3c812930bd184910U, 0xbd4eea19be3d6950U,
  0xbe3c0a47be4d3928U, 0xbea0dfa03dd399c6U, 0xbe4bb715be573c4aU, 0x3ec4fc53be11a590U,
  0x3e78f182be828ec9U, 0xbeb9dddbbeb2b7d6U, 0x3c1371cbbe610fbfU, 0x3e12c6443dac2111U,
  0x3d84a9d53e53ddc6U, 0x3dbed9653dc30e5dU, 0x3e2e9389be8ad232U, 0xbdc57302be26b67eU,
  0xbc95f75f3e805d5cU, 0xbdc251ca3d57f263U, 0xbd94c48fbdcc8317U, 0x3cd93cc5bdb32d42U,
  0xbe8f04923dd9357fU, 0xbdc1b00c3e4998ccU, 0xbc751ac0bd2d2666U, 0xbb855f82bd1462ceU,
  0xbe3d53f8be67e233U, 0xbda6fb57bccfaef5U, 0xbd12a4503e01fb66U, 0xbe415601bd392016U,
  0x3e52f569bca5fd07U, 0x3e1643b4be0d1dadU, 0xbe229672bd945701U, 0xbd471b7ebccc7cbdU,
  0xbc8fd9343e48caa2U, 0xbe3d7700bdb55e79U, 0x3d71d6edbe5d04d9U, 0xbe9036c73d93d87bU,
  0x3dbc861ebd5b592aU, 0x3e0981bebd7474f0U, 0x3cc42620bd2baa79U, 0xbd5967d5bd65c220U,
  0xbdfad10ebb4b6b5bU, 0x3da8a9e03cb8ea4cU, 0xbd9fc55e3e095d2aU, 0x3cc460273d989d23U,
  0x3d182739bd9ddfe7U, 0xbdec996e3de24af7U, 0xbce4609c3e527bc7U, 0xbd038b583cf9e4c7U,
  0xbdafe8e7bebfbf2dU, 0xbdc815ecbe9fd645U, 0xbe37ce3f3e15a955U, 0xbd5fc8b2be3680e7U,
  0x3de54654bdfbb4faU, 0x3dbe2c14bebe5ee1U, 0xbea31486bddf1534U, 0xbe37b55d3dda1f52U,
  0x3ebe933a3df299a8U, 0x3c0108473e2c7c42U, 0x3d97596ebd9420e4U, 0x3daaa772bd912ef3U,
  0x3df37f8cbe7f4a30U, 0xbe6b10223e2454e3U, 0x3e60576a3dc1370dU, 0xbdf35794bd1a9ea2U,
  0xbd78ddffbce60b7bU, 0xbdbfd4c73ddb31aaU, 0xbda21124bd92d394U, 0x3c9f8771be1ac036U,
  0x3dff097fbeb5238dU, 0x3d4dde88beb0be09U, 0xbdb176d3be269e40U, 0x3ddae63e3d8908e6U,
  0xbc8d1af23e246776U, 0x3e192af1be18943eU, 0xbd60b098be06da1cU, 0xbe17f8ecbe376281U,
  0xbd6575fa3d1fdedeU, 0x3e594d173e303f6dU, 0xbc52bd963dfc1f84U, 0x3d443ae9be110819U,
  0xbdb547f5bd900ff8U, 0xbd04a034be2c5e15U, 0x3e5e2bd73c990cddU, 0xbdc97c93be3c773eU,
  0x3cf0eb973d4d3315U, 0x38ce8a7abdfabd1dU, 0xbd753dc9bc8e5489U, 0xbe27a1613dbf492dU,
  0x3e25d4373d7f4fd1U, 0xbdc227ef3c6204d1U, 0x3d2fbf70bdaa6373U, 0xbcfdabdcbd2b402aU,
  0xbdd7b7763dcbe74fU, 0x3e959ffe3ce102b8U, 0xbd0fb853bd7a6895U, 0x3d8ff5d5bd5d0ed9U,
  0x3e06e1b3bc4450a3U, 0xbd695a8b3dbc2855U, 0xbd5288b4bcadd0f2U, 0x3e1d03c6bc9fa0f5U,
  0x3b8f47c03dbc1fcaU, 0xbcbe09623c4251a5U, 0xbd96cf2abe1970f9U, 0xbe03838f3db08402U,
  0xbdf2b3b43ca9f2e2U, 0x3c818a8f3e031b67U, 0xbd00e1883d09f841U, 0xbde9af303e473de6U,
  0xbda8bb5e3cdb08c5U, 0xbde6914f3e75d0e5U, 0x3dd44b173d9b4e47U, 0xbe0b52083d3cdd17U,
  0x3d9f917f3e7d8654U, 0xbe330625bd8755f1U, 0x3d34ba87be136c9bU, 0xbeb0a0123bcc5c20U,
  0xbc3a0c47bd01f128U, 0xbd515e19bd461b30U, 0xbc3f44323df273b9U, 0x3dfa1c70bc9be795U,
  0x3dfa79d4bd9e21f8U, 0xbda28304bd9fc6e6U, 0xba95460b3e1b9ac6U, 0xbdf675a83d855418U,
  0x3d83b04cbc5f52a6U, 0xbcbe6acf3905b247U, 0x3c95ec6d3de2e82aU, 0xbd0a9866bd4f4274U,
  0x3df2da02bdff198cU, 0x3d5bb4a7bc6f7ef1U, 0xbe1135f63c11cc80U, 0x3e64bbcc3de8c7c7U,
  0xbd52b50e3e5c4993U, 0xbe0459a7be1b7540U, 0xbd4364393dbc3eaeU, 0x3d1cac75bddbad25U,
  0x3ce403e9bd0dc21cU, 0xbe36d8713e09865aU, 0xbec0103dbb66a988U, 0xbd5febba3ce0acdeU,
  0x3d7685383e00cc3cU, 0x3db333653cb5ffacU, 0x3e180f85bd9d7b6eU, 0xbd0ff2aebcc0036cU,
  0x3e056eaa3c502987U, 0xbe2136d8be3c4c3aU, 0x3dd8f2babd74f559U, 0x3cab9b483d590988U,
  0x3e2bdf873dd23fe0U, 0x3e01fbcd3df7439fU, 0x3d8b1a343de3c7aeU, 0xbe4aa7b6bd08f8ccU,
  0x3d7fd1e73c04d746U, 0x3d1d0e6a3d621c69U, 0xbe1981293db22338U, 0xbe173b17bdad15feU,
  0xbd1e4b153c078f1cU, 0x3dbed789bdb34512U, 0xbe0da9e33d4e83eaU, 0xbbbf66703d3c8c4fU,
  0xbe157415bd6dc353U, 0x3e0c13c7bd3e9119U, 0x3d3081e63d70c7afU, 0xbc656541bbc6517fU,
  0x3d176631bdccc909U, 0xb9ff0f1dbd78d973U, 0x3e22b5243e00b232U, 0x3dd9b93d3ccd226fU,
  0xbe168c0d3d2e3e3aU, 0x3e3b7db53d796d99U, 0xbdc1098cbda49054U, 0x3a652dd03db2e896U,
  0x3da693ed3cb535b2U, 0xbe81463b3de2f50eU, 0xbd1f68763d57795eU, 0xbe6432343be1d67fU,
  0x3ded4a1dbe12d3bfU, 0x3dc088d13dd371c4U, 0x3e18a21a3c7cdb5eU, 0xbd0f58b6bde27938U,
  0x3e0a752b3d917f79U, 0xbdd679043ab53e20U, 0x3e34dc7b3e24180dU, 0xbcdf3ae73dcbac16U,
  0xbe185e13bd9e5c90U, 0x3d8ae2b2bc406ab7U, 0xbdf8e06fbca95024U, 0x3de8b965bdbf7fffU,
  0xbdb3cc893e0d7437U, 0x3c23f4bdbd66baf2U, 0x3c8be9d53df0f858U, 0x3cf103a63e456898U,
  0x3ddc6d873bf810b2U, 0x3a573fad3e65b9aeU, 0xbd56a903bdadc779U, 0xbd49881b3ddc5cdaU,
  0xbd2aef1fbe2a6ea3U, 0x3d89c898bc061239U, 0xbca42929be11ad7fU, 0xbd993d5e3cd19892U,
  0x3cdb32f13c96e03dU, 0x3d58ed30bd0cb7d2U, 0x3d2a5221bcc22affU, 0xbdcd65023e10dbabU,
  0x3dd6733ebcbe12b8U, 0x3d80631dbccc2accU, 0x3d1780f83db9cb62U, 0xbdef7ba83dbb0b31U,
  0x3da08d3bbd098830U, 0x3d1f46953e09b9abU, 0x3d9164f73d9d9daeU, 0x3b8cf4343e0d490cU,
  0x3dd976133e38a382U, 0xbe271a5c3dcd9b90U, 0x3df372af3e67aa4bU, 0xbc9e7333bdb05f17U,
  0xbcf86c12be0c6c88U, 0x3da5e0083e110990U, 0x3e3e6f903d7efeb9U, 0xbdc18b94bda15655U,
  0x3d96a18fbcb0bf75U, 0xbd3222683d51e2dbU, 0xbe33d4ee3d0cd2c5U, 0x3db68b1fbd19f0e9U,
  0xbc39c6a4be045b8fU, 0x3d1f02c93da04306U, 0xbdb856e2bdc35f76U, 0x3d7893b83b9cfda4U,
  0xbc5023aabe8eaf9fU, 0xbe3fe605bdd96bd5U, 0xbe5e8aeb3e5457abU, 0x3bc74e253d440c70U,
  0x3e0dbbadbded427aU, 0x3e1e955bbd84b221U, 0x3d4fc2cfbe6c61cdU, 0x3de9824f3e1e2adeU,
  0x3e3661d03d00136bU, 0x3dc990693dee89ddU, 0x3ce5ece33d02b529U, 0x3d8eb13fbcfe61f2U,
  0x3c2f688fbdd71e4cU, 0x3ddf11d03da4c2bcU, 0x3dbca5afbd30ea33U, 0x3c07f28abe629b2aU,
  0xbe0afb6a3d8852c4U, 0x3d5cc64abc202f56U, 0xbd4c047dbdc30867U, 0x3d06f587bdadf011U,
  0x3cb89177be33578dU, 0xbd199672be0cb609U, 0x3b8b5a17bd60da2eU, 0x3e8924193c991eeaU,
  0xbe0a2e31bd01d9acU, 0x3d27b0483d690ef0U, 0xbc8252eabdccd42cU, 0x3d443ff1bbc98234U,
  0x3bf590a83dcce509U, 0x3e04bafcbdbb5af2U, 0xbe2038363c6c95d2U, 0xbd9e3e54bd821eaaU,
  0xbda1dfe83d694c26U, 0xbd1892b93c82b7b5U, 0x3dbb481e3e0c87f8U, 0xbc824ee53c05bd3eU,
  0xbcde19bc3db21ebbU, 0xbdf719f9bd3c02f0U, 0x3d9a1b8bbd8623adU, 0xbce25531be98ab1aU,
  0x3dec9a6abdb9f99aU, 0xbde194b9bbb0ef32U, 0x3d3dacc13e3d92f0U, 0x3ce9e2c3bbb28790U,
  0xbc73671abdf1c031U, 0xbe4b8ce4bd956aa4U, 0x3c1d337fbb952f62U, 0xbce559c43e3dcd93U,
  0x3c0b1e2e3db42c21U, 0x3d27a6813e897de2U, 0xbb2f4b92be38771bU, 0xbda356ac3db1b646U,
  0xbcf24da0bd2dcde6U, 0x3dc97f83be08e511U, 0xbdf242433e367594U, 0xbdfe0c1abdfecaa1U,
  0x3dee114dbd33170bU, 0xbd8617913cd01e49U, 0x3cc57e123dd2c105U, 0x3dbe72babdc1a759U,
  0xbdc911debb5b7299U, 0xbe1795c8bd242d0dU, 0xbded66e0bd56e448U, 0x3d2d5589bd9b7539U,
  0x3d952fe73dbe904fU, 0xbcc7fe4ebe064d91U, 0xbb979ad0bb3d43e3U, 0x3c602bba3e3ef71dU,
  0xbc7f5fc0bdafc82fU, 0x3d78ef9cbd535383U, 0x3dec575cbcc065a6U, 0x3c264cc2bdb7b7a7U,
  0xbd92b53dbd44925bU, 0xbcb826f1be1711d8U, 0xbdddbe243c4a0801U, 0x3e42f2843cd791ddU,
  0x3c4c84e2bd50345fU, 0xbd3e442abc9d266dU, 0x3de07163bdb40753U, 0x3d3440d73dca56b5U,
  0xbbc4df023cfec960U, 0x3dbc5cec3e14ec90U, 0x3b7ecb22bc7d4150U, 0x3c6b9aff3e17127dU,
  0xbcbd3697be43e598U, 0xbdfe52ccbb81e08dU, 0xbd284ae7bc771b26U, 0xbe14d7b9be4e0d27U,
  0x3c9fa8fc3e5d3915U, 0xbbb849b7bc7242c2U, 0xbd8a20733c107e96U, 0xbd39c81dbe2f416eU,
  0x3ce469733ca6c6abU, 0x3e32a978bbf9fdb4U, 0xbd5e62c3bd01d821U, 0xbe3464c3bd91a6b8U,
  0xbdd0796a3e191377U, 0x3d0e75a1bdcd478fU, 0xbd1b6f703b4fc862U, 0x3e06e57d3ccf7063U,
  0x3de5843bbda33f93U, 0xbd4d9ce83de29c64U, 0xbbd7ecddbd4f4804U, 0xbceabe4ebdb99e9cU,
  0x3d2e83da3dabd4aaU, 0xbd02a4833ce15624U, 0x3de114f43d4d2765U, 0x3d076fce3e20f6a6U,
  0x3c07eac73d13ebe6U, 0x3d9731d73e333010U, 0xbd075892be01c3bcU, 0x3df2238abbe79c5fU,
  0xbdcc6a193d38c72aU, 0x3d9a021f3d8ee351U, 0x3d364fe43cfe6ecfU, 0xbd8c82e23dbe572eU,
  0xbd6e75f33daadd6fU, 0xbd83072fbdf95aedU, 0x3daf306fbc956013U, 0x3e246adf3d1f39fbU,
  0x3d79223fbd8afa4aU, 0x3d1c3e89bd924b74U, 0xbd13c8733d0daa6cU, 0x3ded28d9bb8d9de8U,
  0xbe5068b43d68e519U, 0x3dbb34e53dcc2a81U, 0xbe1644e03d561c29U, 0xbe2db2aebd038921U,
  0x3cfa0ea53df37f6bU, 0xbcbd537fbd3b6c3bU, 0xbd3ba04fbe412667U, 0x3dc81f23bd6c34c6U,
  0xbe287a7d3e0c9340U, 0x3cb22bc43e3ecc29U, 0xbd3e2c11bdb26380U, 0xbd5259aabe3c66deU,
  0xbdb592373d8e6b87U, 0x3c16e24cbb92bcdeU, 0xbb9f010abd3df69cU, 0x3d0143f6bd50d949U,
  0xbcd8f78e3c235ab5U, 0xbc7d83c7bd0c0486U, 0xbe3356ee3d173b8dU, 0xbd7bffa7bddd7717U,
  0x3dad97e9bd956d93U, 0x3cad5a2ebd9fb0d0U, 0xbdc0734b3e0af66eU, 0x3db4de26bd69672fU,
  0x3d2838be3e103361U, 0x3cdf11f63da117d1U, 0x3dbdea0cbdff3a71U, 0xbde6787b3cada73aU,
  0x3d5e34f4bcbb6790U, 0xbbf19066b9fdb65eU, 0xbe669d613e8924b5U, 0xbd2766fe3d05f3b0U,
  0x3e5754df3e469d01U, 0xbd8dc483bdc3a8efU, 0xbd5188b13daed88bU, 0x3e582bdabcb0b0b8U,
  0x3d8b796ebd8fb415U, 0x3a91e4ec3d26646dU, 0xbcb5bae3bd2b4124U, 0xbd1ddcbebd1e5a9aU,
  0xbdb65a17bdd9d201U, 0x3d6ed3803ce63c98U, 0x3d9165e73c805a02U, 0x3dc363b23cb989d4U,
  0x3dd8c96abd262f2bU, 0xbd8fc8f23c233728U, 0x3cdac2073e114a76U, 0xbcc4af1b3d643f44U,
  0xbbe237323d8a7e2fU, 0x3e000748bc110727U, 0x3cc74c593d8939fdU, 0xbc3eddf9bb20316aU,
  0xbdec0e1b3df66984U, 0xbdf52680bd0491a2U, 0x3c24421e3d2b03b4U, 0xbc66ddafbd196c48U,
  0xbdf994b23d97e5beU, 0xbd3cf89b3df4cfc6U, 0x3d9b416d3c8dbb8fU, 0xbc69dcea3d2a58ceU,
  0xbddcb2323d6b5ccbU, 0xbd51795e3e14b3acU, 0x3e06a5da3ca1f4a4U, 0xbc82df0d3d04602dU,
  0xbacccb65bd1d51b0U, 0x3db80bd33e827b9eU, 0x3c9701343e1104fbU, 0x3e12ee493d7ac766U,
  0x3d16219c3e407a18U, 0xbe025c673dea7529U, 0x3c9952323d975f72U, 0xbe70f2883e354cdaU,
  0xbc2fbe49bdaca594U, 0x3dc2b698bc5fa989U, 0xbd58c801bcef9873U, 0xbe01b150bcf52bffU,
  0x3d90831cbd98628cU, 0xbe0eef623d7ae606U, 0xbd9556303e30a5f9U, 0xbcd6302dbbc1c18dU,
  0xbd142525be39b674U, 0xbcf6362e3d8e869eU, 0xbdc0d126bd96ea51U, 0x3e2fe4bfbba6223dU,
  0x3de4a18dbcfef5eeU, 0xbdae086a3e080935U, 0xbd844aa43c8c1b8cU, 0xbc5a21d33deff943U,
  0x3d6c1a39be78622aU, 0x3d8d49d13d64a95dU, 0xbdb79241bd628cecU, 0x3e0c9161bcd1fbb1U,
  0x3d9393ac3e293adfU, 0x3c01db57bd551fc2U, 0xbd8155263d75e890U, 0x3c66e9323d701135U,
  0xbcb3813c3dd52e14U, 0xbd46872fbd4bd006U, 0x3e717ff33d261573U, 0xbd1f5e4fbe0819f8U,
  0x3ce64c2f3ce0e2eeU, 0xbe49aae73c33fd76U, 0x3d2888683d80cd06U, 0x3db57c893d32d804U,
  0x3d1ccd7a3d5341e2U, 0x3db688743c45dfefU, 0x3da334773c951df7U, 0x3d8cea613cb035a9U,
  0xbe6f197a3d404434U, 0xbdd55b453d26423bU, 0xbe208120bd44cf5dU, 0xbdb7a0173c97b327U,
  0x3c85ffe83de82424U, 0x3e15b3edbd3ac4b4U, 0x3cfeb9913e121aa7U, 0xbdc43ee1bd40d42cU,
  0xbe29ef673cd9f4c2U, 0x3d13b900bd3e88e0U, 0x3db02fe3be323c3eU, 0x3d8edda7bdb892dfU,
  0x3e0d9201bc963b2dU, 0xbdacdffd3dae62dfU, 0xbc97664ebdd7d157U, 0xbe692c933c82429eU,
  0x3e2b759d3d599524U, 0x3d5452503e11a4b5U, 0x3e741093bbaccc81U, 0x3880950ebe02eed6U,
  0xbd191352be055896U, 0x3d0bbe023dd286e3U, 0xbc212bfd3d5e0abeU, 0xbd2bf233bcbc5c94U,
  0x3dd1cd3e3c27d1abU, 0xbd40b3d4bc5eaa65U, 0x3e338c44bcfaaeccU, 0x3c57ac673dbb3044U,
  0xbcae08a6bdb2bb9fU, 0x3db9c138bd77ac10U, 0xbe2770253dac8338U, 0xbe62fd8dbdd8c4adU,
  0x3e6a81fe3d245d09U, 0x3d869982bd781e3dU, 0xbda9f28a3dbdb6adU, 0xbccde72d3cf9b0e2U,
  0x3d5f4ca4bd9d6bfcU, 0x3c670c87be334683U, 0xbe60b0b2bc794303U, 0x3cfd8859bcd64f35U,
  0xbcc13445bdb6101cU, 0xbcf3b1143cd97da5U, 0x3d6fd9fc3da66a98U, 0x3da32a74bd8b76a5U,
  0x3def9cd43e091076U, 0xbde026f83d60b6efU, 0xbd2332353d03aeb0U, 0xbe1c339f3e995862U,
  0x3cdf740cbc064858U, 0x3e1c1c723cf15dc6U, 0x3d8a3d4e3c8d46f9U, 0x3dc207dabd99f4c4U,
  0xbbb87c34bd0269c0U, 0x3c5762193e273615U, 0x3e0c84493cd349c3U, 0x3e0e5087bcd11db8U,
  0x3d9cb5a13c784211U, 0xbdc564583d9817f2U, 0x3d9520473d3b0ff6U, 0xbd8126773ddfbe89U,
  0xbe09d66c3dd73951U, 0xbdc2c3c63ce46a9eU, 0x3e298209bcdbe350U, 0x3e8f536ebca410c5U,
  0xbcb599203e1fc6a4U, 0xbd3d93003ddff085U, 0x3d9a554abe0f06b1U, 0x3e38e1c5bdb0f671U,
  0xba39d2943dadcf07U, 0x3eafd0e23e094789U, 0x3de3c221bdcff958U, 0xbdad1a8c3d8f661cU,
  0xbd563f373c427fe0U, 0xbd7b7b8c3eb4a548U, 0xbc41112a3e92af66U, 0xbc2d94c8bd2570b0U,
  0xbe3ac1803e4da95fU, 0x3dade821bde356b3U, 0xbd5a07223d5c5669U, 0xbc6d218f3de3845eU,
  0x3d3c76a13c65d86aU, 0x3e9431fe3c8acfffU, 0x3b6f92053c068229U, 0x3c99705bbe26c1d3U,
  0x3cd9ab45bd5a1422U, 0xbdd1c9c13e7a3226U, 0xbda5193dbd8b284cU, 0xbe2d6c433c95d3f6U,
  0x3dbef8d23dbeb342U, 0x3bfb9f59bd26674bU, 0x3e0de0fbbdf47782U, 0xbdbacffe3c29b9e5U,
  0x3e0cc72bbd95242dU, 0xbc1b8bb2bcc2ffd3U, 0x3d86c646bd88619fU, 0x3c0e80af3a1632bcU,
  0x3d88920a3c76daf3U, 0x3e3c4b263e541751U, 0xbadce3243d2820e7U, 0x3ccffe073dabe141U,
  0xbb9ddb4d3d9dc54eU, 0xbc1f2188be24db00U, 0x3c17b83abd2fa624U, 0x3cce92203d3f671dU,
  0xbe5143183e0122cfU, 0x3caf17983cc807dfU, 0xbe49ca853d0186c6U, 0xbd0a35333e4fb4d9U,
  0xbdbf26813d92b257U, 0xbdbb8957bd05a1acU, 0xbe92898d3e0eca7eU, 0x3bb55fca3d46fca5U,
  0xbe59212a3d0858a8U, 0xbc0dfd133e17ab03U, 0x3d3f83903ce91c9cU, 0x3dc8c88cbddc8b7fU,
  0x3decc2d23d4495b7U, 0xbe0868ad3dedb548U, 0x3d4dd6ce3e15640aU, 0x3c2726eb3da85d73U,
  0xbd4c35123c9d1998U, 0xbdca0306bdc03068U, 0x3d183c00bd4c1512U, 0xbcb501bd3de30f0bU,
  0x3cfbadaf3df02f4eU, 0x3d620e83bcd97dbeU, 0x3befc5873d28a0daU, 0x3dc952fe3dbf64ebU,
  0xbbae87e23c3b7292U, 0xbb6a26aabdb638b3U, 0x3c8bdc1c3e5e525fU, 0x3d8ecc433dca65dfU,
  0xbd2f1684bc98859dU, 0x3b259c623d8c17deU, 0x3e80af49be0adf00U, 0x3b9aa5d13e3de250U,
  0x3c833c31bd8d0072U, 0xbdc8b4493de1f82cU, 0x3c8596cbbe525a70U, 0x3e0892fcbe9691b4U,
  0xbc81934abdb7b68dU, 0xbdd84782be3f394bU, 0x3e4e28093dad51c3U, 0xbdc395043e243358U,
  0x3e123fca3ddd045aU, 0x3d4bba42bc176bffU, 0xbdc74e3f3de44a19U, 0xbd4eb9d5bdbeab8dU,
  0x3e220a963e23508cU, 0xbce6d5f33da1d738U, 0xbdf949a9bd3962f2U, 0x3dab66e8baac4db0U,
  0xbda2728dbe0a7843U, 0xbdb9e1e13c395f4aU, 0xbe2718153e174eb8U, 0xbdbc34ac3e156968U,
  0xbc08ad333d045867U, 0x3dd969c63ddf6f81U, 0x3dfe8527be093d19U, 0x3ea3185f3da63544U,
  0x3bc41f12bcc14998U, 0x3db0636abd4369d0U, 0xbc6345a1bdcd728eU, 0x3c9bc47a3dfa9ba9U,
  0x3e32217a3d893da2U, 0x3e32508a3e01317dU, 0xbdb84c35bdcc7541U, 0x3c98ee75bde85e2aU,
  0xbd21850e3d9e3eecU, 0xbd36ce713dfa61ecU, 0xbdd5a4bd3de247adU, 0xbdcb2ca83db37b0bU,
  0xbd0bc205bda2b71bU, 0x3e01b4babe150c2eU, 0x3cb5bc5abd01708aU, 0xbd626a4cbe2d41f8U,
  0x3e36f66fbd6e9183U, 0xbe16953ebcacc16aU, 0x3d049650bd62f80bU, 0xbc0188c8be0913d7U,
  0x3e141ac5bdf50794U, 0xbcfb998ebe53f663U, 0x3deefa7e3dbd5fc3U, 0xbdb4a51fbd4a45cdU,
  0x3e03989a3c70c647U, 0xbd1b56d03c6ca54bU, 0x3dcce88b3dc76049U, 0xbdd9872a3d82d9c6U,
  0xbca9910c3e080963U, 0xbe41bfc0bc5afc34U, 0xb6cd6a49bdf455e9U, 0x3e8159ea3b96bdf4U,
  0x3d1757a33d403b5eU, 0x3d2f71303deef633U, 0xbd3266e13d876448U, 0xbd84b5c53d14e431U,
  0x3d488864bd91f62bU, 0x3e25af67bcb0687bU, 0xbd914619be5cb8b0U, 0xbc688df83d83b056U,
  0xbe000aac3dbad35dU, 0x3e4b8dbb3c8bbf09U, 0xbc5706703d6c3f58U, 0xbd52636fbda26585U,
  0x3de8fc463d668d3cU, 0xbc483aefbe000ef0U, 0xbddb8615bdcf52ddU, 0x3beeaf753cb1301cU,
  0x3a20a17ebd31ef38U, 0x3d990b3dbe30637eU, 0x3dc0ca613d8222f0U, 0x3e109b773db3eaa2U,
  0xbdfd49493cdb6ba5U, 0xbcffc9193cc73dd4U, 0x3daf64efbe7fa792U, 0x3e2572dfbd154a86U,
  0xbc452b76bd8c607cU, 0x3d8c01053c84de20U, 0xbdf707ab3e30cab7U, 0x3e84782bbd4383aaU,
  0x3e9c2d1dbe30a12eU, 0xbd28894d3e3072edU, 0xbe9ce0b3bb6a5906U, 0xbe6fbb653d444b1fU,
  0xbb8e8f993dade9ecU, 0xbc4082573d971f7bU, 0xbe33d97c3d383510U, 0xbd9fa7abbda6e75fU,
  0xbdb42f923e0fc5f0U, 0xbe09c27f3d9719e9U, 0x3ce5a89a3dcbf520U, 0xbd8fb1f8bd82bd0fU,
  0xbe82fb58bd2c06dbU, 0xbd84a1edbe08d43cU, 0xbdb71069bddbaf47U, 0x3ca161f93d044322U,
  0xbe19de82be17f2efU, 0x3de337f73ca67f83U, 0x3bffb18e3d3b65deU, 0xbe1660383da962bbU,
  0xbc28fa0a3e519729U, 0xbd953d7f3d86c328U, 0xbcb80ae73dcfab88U, 0xb9eb85e2bd5938adU,
  0xbb833cd7bd964c48U, 0xbb203213bdaefcfdU, 0xbdcc48223e37179eU, 0xbc9d29903d18e89fU,
  0x3d1fa900bd15b922U, 0x3e122c903d16ba87U, 0x3daa7613bc5fb7a2U, 0xbcd079dd3dbd21bfU,
  0xbe140123bc9f8933U, 0x3d6feea2bc6deaf1U, 0xbe8f36ecbcc789a7U, 0x3e067111bccaa32bU,
  0x3d296cc53dc0d227U, 0x3e0d7225bd4c6e2fU, 0xbda408be3d85d45bU, 0xbe13fa23bda5097eU,
  0x3c1c0ca93d4cd148U, 0xbdb3abbd3deb26fcU, 0x3c884c923de692b7U, 0x3d97fd1d3dc6ed43U,
  0x3ce5fefc3c650634U, 0x3e35500fbaf47f36U, 0x3e547a7b3e0b1439U, 0x3d7a7720bce9057fU,
  0xbbace533be02d75fU, 0x3de43b743d50e29fU, 0x3d93bbe43dda219eU, 0x3dba1b053c07556dU,
  0x3bf437eebc4156cfU, 0x3d436b23bd603471U, 0x3e7699fabd55dc2fU, 0xbde085c33e4bd2a2U,
  0xbad571533d1a0513U, 0xbcc1b406bdcc32bfU, 0x3db462cebb4d95d4U, 0xbd8dc6fd3cf76d8aU,
  0xbcd17442bd95e1ccU, 0x3d13b1223e1d5473U, 0x3e070eabbdf7662dU, 0xbcb61a27bd3edde7U,
  0xbdb8e009be4b045bU, 0x3eba672ebd4d96eeU, 0xbd65a3dc3e3a2e3fU, 0x3dd5e775bd7bd978U,
  0xbdb2998e3cabb120U, 0xbdddbceb3d17d74dU, 0x3bfec22fbbf2ccd0U, 0xbbeb271a3ca2f3bcU,
  0x3d2193afbd8288c4U, 0x3e08987fbd331ee6U, 0xbd0f9cf7bcd0bb10U, 0xbcd445f33e1bc953U,
  0x3cdec6e1bde9c50dU, 0x3d2ffe5f3df108f1U, 0x3e2c7550bccc04d7U, 0xbd95e4cfbda189d4U,
  0x3c5de9f83e2f136fU, 0x3d62c3233dbcc435U, 0xbd8936efbcdc9af1U, 0x3dfc662b3e2700dcU,
  0xb8fa50cdbd40d886U, 0x3df2d0933d805663U, 0xbc3b6907bbc0a14bU, 0x3ca6eec23d01ad5aU,
  0x3d37804bbb27f302U, 0xbd0ed9da3cc1cf86U, 0xbe5b67cabc6f9e49U, 0x3d3341ee3df84102U,
  0xbd976193bc8de5f5U, 0xbc9726893d703af1U, 0xbe0a18203d4940aeU, 0x3dbd54503d6f6d05U,
  0x3db4c631bd967ff8U, 0x3d005d66bdb7216eU, 0xbd78d970bd95920aU, 0xbdb254833dc27b8bU,
  0xbd5ae138bdcd7325U, 0xbe4c92bcbce935d8U, 0xbccdac0bbde1cc36U, 0x3cc7b671be374b80U,
  0xbe1378aebd86e866U, 0xbd0c77763e236048U, 0xbb0bbb513cc1ac0fU, 0x3db44ec6be269ab6U,
  0x3df473c8bd71582eU, 0x3cecebd7be877857U, 0x3cfab88cbd3fc17dU, 0x3d4a40ae3bff4638U,
  0xbdaafb463c383ed1U, 0x3d9031a3bd9435b5U, 0xbdb44e473dad381eU, 0x3dd5df4abe253586U,
  0x3b3fdc8e3da0c4f5U, 0xbddb77343d96d949U, 0xbc1210c9bded252aU, 0x3d8caca7bd165b3bU,
  0xbc4ba4ed3cea4544U, 0x3d10ff3a3e44df97U, 0x3d9ef9863e1d7260U, 0xbcbb17bf3d6d7c40U,
  0x3e52700dbe013bf5U, 0xbe3c8700bd774bbdU, 0x3c81947f3d45814bU, 0x3df651153b156890U,
  0xba8322a73d0b2a71U, 0xbd04cf73bdd99e7aU, 0x3d7e1e613e31a836U, 0xbd5093d5be0824a2U,
  0xbdf4f0cd3bb1612dU, 0x3d92a20fbe4fcc3fU, 0xbdee8d32bdbdc4bdU, 0xbcabe742bd343902U,
  0x3d3018cabd08a85dU, 0xbdadc809bcc82ef7U, 0xbdc4a9ef3e05de38U, 0xbd987cf9bcb4f0beU,
  0x3e01596cbb58dbfcU, 0x3d493070be15fb23U, 0xbcc61d103b10d294U, 0xbd4d9889bbb54df6U,
  0x3e42406f3e38669cU, 0xbd0d7fbcbdfbf08fU, 0xb909a1ddbd898ca6U, 0xbdbfacc93e2907e7U,
  0xbdc97ce93d964da1U, 0x3d3645803e557991U, 0x3c9f855b3d765363U, 0xbd137a163e499a64U,
  0x3d7c1a4c3b846432U, 0x3d01e1abbdf168b5U, 0x3cdadd833d9433c1U, 0xbbd7ef993d8f1dadU,
  0xbdfa6be5bdcb7752U, 0x3d50ff24bd47e9c3U, 0xbae6b351bd48b6ffU, 0x3c7dba8a3d67051cU,
  0x3d8bf988bde2cce1U, 0x3e1b17ed3dd53edeU, 0xbdd743df3daf710bU, 0xbb2b6dc33dda821bU,
  0xbde63184be3ade8fU, 0x3d1d63563d9f6741U, 0x3da545673b892690U, 0x3cefd47abbd9a033U,
  0xbe3db8403da9409cU, 0x3d44b8afbda9403eU, 0x3dd11ede3c71423dU, 0x3e000a34bd3a65cfU,
  0xbe0c649d3c4a42ccU, 0xbe03e60ebcf47130U, 0xbdfe7656bc9987f9U, 0xbdc636c03e4555dfU,
  0x3ddd1de8bdcd7f6aU, 0x3d87507fbb8219b1U, 0xbc8cce4e3cf00320U, 0x3dd020e33dd847eeU,
  0xbd13d88a3df1e34cU, 0x3e477a23bd7e5fe4U, 0xbe2c9f48bd5f4516U, 0xbd4dd5eabcc310b4U,
  0xbe0c1e303da3bf4bU, 0x3c88478dbd565ad5U, 0xbc8d7365bd0845a6U, 0x3d45c99e3d763725U,
  0xbd5f7828bb9031f7U, 0xbd9c76c7bd59eedaU, 0x3d6dec923db48c26U, 0x3e84bbd8bcb014fbU,
  0xbd078035bdf4f98dU, 0xbe4bd055be3da1b9U, 0x3d89bf63bdc2fbcbU, 0x3dcb4a70bdbf955aU,
  0x3d9b0b8c3da523adU, 0xbdc1dc833da1ab6eU, 0xbd0b9ffcbd6c823dU, 0x3e363ebebd98feefU,
  0xbe764eb23db5b139U, 0xbe662d03bdffd646U, 0xbd2f6341bdea13f7U, 0xbdf716e4bd0d4874U,
  0x3c8d6aa33cb6d6a0U, 0xbd935cb53d9405ebU, 0x3e03dbe9be658558U, 0x3d54753bbd57783fU,
  0xbd8b5183bda9fb72U, 0xbd2402783cdfe680U, 0xbbf437e6bdb6a9d9U, 0x3e85b7a33c4a8405U,
  0xbd6261073e221b5fU, 0xbc81ee6f3e5c9ff4U, 0x3cf0eea43df97d7bU, 0x3dd2efff3dffe20bU,
  0xbda048b03e170b36U, 0xbd6b431fbe17e0acU, 0x3d5bd30f3e066268U, 0x3d3666603d5c9945U,
  0x3d90b6763dc181d8U, 0x3e6461d53dac6e71U, 0xbe4de7603d01428bU, 0xbe4b619c3d46dc94U,
  0x3bf0c7a73e398623U, 0xbd9d8943bd353549U, 0xbd9057b93e1bc570U, 0xbe258f9fbd0a1360U,
  0xbe6d77c6bd9d208bU, 0x3cd33f753e081821U, 0xbe05201fbd8cfff1U, 0xbcbc050b3de679f1U,
  0x3dd08c613d94b0b4U, 0xbe08261f3dc41ac9U, 0x3cccd3c83d08017fU, 0x3a8d42483d00b452U,
  0x3dfc45853d2bc24eU, 0xbdff514abdb5ae44U, 0xbdb805473e1654f0U, 0x3ade9240bd36bd04U,
  0xbd174c32bc4797a1U, 0xbdded620be1e6d82U, 0xbd2fc13dbd9b7180U, 0x3b82e07a3d2636beU,
  0x3cc1b360bdf5190bU, 0xbe28e29ebe4bd8c8U, 0x3de78a8e3e254dd4U, 0x3dc24032bdfe1422U,
  0xbdc5f1a13e060cf5U, 0x3e6d43403dd0ac9dU, 0x3d6532debd58d12cU, 0xba0b89303d9c7c33U,
  0xbce870de3dc03d69U, 0x3e6eb68b3d20c95aU, 0xbc4958613d2d6ac8U, 0xbd1a8d3c3cb56d52U,
  0x3cbc0e583dac50a9U, 0xbd3e0d99bd7edf64U, 0xbcc735993e318009U, 0xbd3a9f12bdbec382U,
  0xbd914768be068e62U, 0x3d5ed5f1be1a538cU, 0x3ce3b092bd1f52faU, 0xbe5e48f83e2fa1eeU,
  0xbca9826d3ca2ec6cU, 0xbd8be5a7bd036268U, 0x3b6441743e040cb5U, 0xbe0040f8be5af120U,
  0xbe2c34edbcd5fed7U, 0xbd1d2a3cbe2c95adU, 0xbcb0e9aabe098e19U, 0x3dc90e0abbd8bfb0U,
  0xbce96508bbbe3f17U, 0xbd30e272bdbebb56U, 0xbc639184bdfea3a7U, 0xbe1c94283d8b07ceU,
  0xbe21c42fbbd3147cU, 0x3a901c983d7009e8U, 0x3d4333e43d767163U, 0x3c83082b3e64b317U,
  0xbcca0289bde1d805U, 0xbcc464f2bddcad3cU, 0x3d449757bd65383eU, 0xbd9d79b13c47c38dU,
  0xbd1f70ac3e096b35U, 0xbe0e632e3aaa8671U, 0x3da895623e47e7b4U, 0xbdb4f3ab3de60868U,
  0x3d68b56a3dfbc771U, 0x3e03674b3e01e939U, 0x3da39fba3e1d5e8fU, 0x3e04cf1fbde10c31U,
  0xbcea86aa3dde2b3cU, 0xbdc360463d38d1cdU, 0x3d32de65bcb13dc7U, 0xbcf337b9be3c3c1eU,
  0xbbf77140be25c092U, 0xbe0669fd3dae0435U, 0xbdc95805bdfb2351U, 0xbdb9ea47be81c073U,
  0xbde20c193d81f13dU, 0xbe3309023da8461cU, 0x3e41eaebbd855fdfU, 0x3e2940dcbdc11725U,
  0x3dccd904bd2f32c7U, 0xbd5f8d2a3ce51cf4U, 0x3e89897cbda6afe0U, 0xbb731a973c94ff44U,
  0x3d93da013b3a6833U, 0xbc1801cabcb74c20U, 0x3db5d7b53dc4abb1U, 0xbc1d9a803c9bcb6fU,
  0xbd0a61663d5e3070U, 0x3c98c157be03f4dcU, 0xbdadef26bdd8e0dcU, 0x3bf2f1e83e2554abU,
  0xbd646f41bc1a8865U, 0x3d4210123d5c777fU, 0x3d4e1012bd5548d9U, 0xbe641b2ebc9d5867U,
  0xbe0fea68be0782fdU, 0x3e06db68bdd896c3U, 0x3d6077103db5022cU, 0x3e082d003d17818aU,
  0xbd8f6428be934a33U, 0x3e2af2c0bdfdef80U, 0xbceea87a3dc00eecU, 0xbd8492c83e2b3df2U,
  0xbdb1fe92be2dccdcU, 0xbdc37870bd6d7a9bU, 0x3d26ed27bd89d456U, 0xbe03dd57bde67f4cU,
  0x3d02982bbd8456ccU, 0xbddb75c1bc674735U, 0xbdc8d74bbd6b52ceU, 0xbe5c8d8dbdc9a843U,
  0x3d50fbbd3ba3c1c6U, 0xbe691cb13d5f93d3U, 0x3e4583e03e259d34U, 0x3e6173a33bf3384aU,
  0xbd8bb650bd3cd1c5U, 0x3d103b5abd31d7f7U, 0x3e1e2928bdbfa4a7U, 0xbe4560d2be0a0317U,
  0xbd45a2e2bc7db72eU, 0x3d3298e43d9aca05U, 0xbcea992a3c5ef213U, 0xbdd2c0e63e134c0dU,
  0xbdb9cc143c462121U, 0xbdffe941be051cbeU, 0xbdacaa1fbe518924U, 0x3dcdab733de95c09U,
  0xbe0d3e103e49614dU, 0x3e2dd83f3e3a0c83U, 0xbe229465be60b529U, 0x3d52a470be3db977U,
  0xbe17939f3da4f2d5U, 0xbbc692dfbd34fd23U, 0xbbfd03d4bd7d227fU, 0xbe3477eebd1ed1f2U,
  0xbd9723273e203886U, 0x3d2013e43d3e10c2U, 0x3e2ffaf6be3d6214U, 0xbd34c40fbe4423a1U,
  0x3d2228bbbdd0cb8bU, 0xbd57eeb03d14ad7eU, 0x3c98b1603e08429bU, 0xbd8457573d9fa9d2U,
  0xbc32b1f53cf76114U, 0x3db23127bdb2a8e5U, 0xbce04f0ebd7f3db0U, 0xbdc6335c3e302ff9U,
  0x3e5ed09a3dd72aaaU, 0x3cf46d74bcb63d4eU, 0xbe000e71bbd6cf0bU, 0xbd85a0ddbcf7ffbeU,
  0xbe276f0bbe30be64U, 0xbd168e39bbf57757U, 0x3e54db76be19bc1aU, 0x3de280efbe043486U,
  0xbe908fbb3c5ba2beU, 0x3caad37ebd9f2971U, 0xbd1c9ec23e3f6592U, 0x3df9d2dc3d944bc3U,
  0x3da13b19bdb893b9U, 0x3d0a0739bd5e9a13U, 0x3d26a56a3db6f24eU, 0xbcb3a8653e0b2688U,
  0xbb149ca4bd1c277aU, 0xbe015d62be4cba5bU, 0xbe33e28e3e29d5d6U, 0xbe39a3b6be06ed83U,
  0x3cb9d03abe1253b1U, 0x3db96e893dd28e1eU, 0xbe7e2408be884a7eU, 0xbe79418bbda5416bU,
  0xbd002a0ebcf4ca3aU, 0xbc768c273e34c678U, 0x3d6a6c72bd31a69fU, 0x3c6c036fbd8080fcU,
  0x3e956292bdde7628U, 0xbd8dc9f2bd1b7f6eU, 0xbd0f3bb9bc32703cU, 0xbe0d73f2be11f122U,
  0x3c9dfbf9bde744d7U, 0xbe38181ebd6be3ccU, 0xbd8a175dbe17d03bU, 0x3e91647bbb9e495bU,
  0xbc2a58d1bd7f7e30U, 0xbdfdea3d3d25ace5U, 0xbe0542bdbe777fd4U, 0x3e0e09773ca61190U,
  0x3cf6dd823df52880U, 0x3d3c70d23d983ebdU, 0xbd9291123cb21106U, 0xbce8a957bde305b5U,
  0x3d897a5f3d4e1da0U, 0x3ddcffa63e4f13ddU, 0xbde70c1dbd362aabU, 0xbdf917e0bd99ff88U,
  0x3da12cfa3c93bd4dU, 0xbc3cad253d9c3842U, 0xbc2b6bebbe023eeeU, 0x3d126aad3d15dc3bU,
  0xbe01f247bc97ea31U, 0xbd53a4c2be849fd6U, 0x3df5fed03d1339d3U, 0xbe231aae3d1f5b33U,
  0xbce172a0bcf9121dU, 0x3d8ea343bdf7d06fU, 0x3dc519bcbdd1bf53U, 0xbd0be9783c36a01eU,
  0x3ccf9e2b3a55479dU, 0xbc2e5747bdfde57fU, 0x3e1165febdd87ad1U, 0xbdb33e42bdf5a455U,
  0x3d0b812ebe39811eU, 0x3c32316ebc05bb11U, 0x3cc08f1b3d9b3a90U, 0xbcc4c687be0b0be6U,
  0xbdbdfad5bcc6ee6fU, 0x3df632443d1f48b1U, 0xbdc358683e61f147U, 0xbd323b3e39ba8b0bU,
  0xbd8e9454bd5ed699U, 0x3dc72b893ca62522U, 0x3bb36c6c3d47fd42U, 0x3e1ae8e0bb0ae0e5U,
  0xbd4879073cf43467U, 0x3d53e52abdc14af0U, 0xbd8fc8bd3e0b3f1dU, 0x3d97296dbe167dc6U,
  0x3da55aacbd3767cbU, 0xbe007b29bd56239eU, 0xbb910126be053745U, 0xbd6118023d3979adU,
  0x3d0713d3bd48c4b2U, 0xbc87d59e3bd5decbU, 0x3d59c7033c8913d1U, 0x3dae8712bdbb5c26U,
  0x3e6bd92ebdeee4c0U, 0x3d4e8d5cbcabe591U, 0x3dc837e43d86c191U, 0xbe8abce7bce60ee9U,
  0x3d4bdf443bb28f94U, 0xbe4eedc63e038acaU, 0xbd313f353be3555bU, 0x3dd80343bb8e3455U,
  0xbdaeabdd3d1157f0U, 0xbd3dfdcbbdb5f5b4U, 0xbdc65d933d66aa31U, 0xbd9e0e753e7ca7c3U,
  0xbe12e7933e0ff73aU, 0x3e5cedcc3e053214U, 0x3c79a1033cdaef58U, 0x3e136173bdf6d6f2U,
  0xbe5c49d03e321fd5U, 0x3dd75e9c3e2307c8U, 0xbc5b9797be17bf6bU, 0x3992f467be527264U,
  0xbe24a33abd40a17cU, 0xbd8fcfad3d3993d2U, 0x3bc76d5a3d9910c1U, 0x3e215880be852713U,
  0xbe091e9dbdad16fcU, 0xbcd4a29cbe16fa12U, 0x3d8a2892bd9a03adU, 0xbd925225bd948f61U,
  0x3db698943dec8fdbU, 0x3e267419be2b6a60U, 0x39cf094dbe05c4bdU, 0xbd85094e3dcc51b0U,
  0x3e7f1c933c5f584fU, 0xbd0d17b5be020303U, 0xbe8a78a03e10408fU, 0xbe0b2e873e0f6c20U,
  0xbde53f5dbe073bd0U, 0x3d2526eabe749029U, 0x3d7eb6c1bde07d35U, 0xbdc9ce97bce1fd54U,
  0xbdc8e576bcb1df8aU, 0x3c89bcc63d874335U, 0x3ccbd9893e197b97U, 0x3db9d0a13d83f850U,
  0xbbce9355bdcc7e7dU, 0xbd0ffbe4bd1c84daU, 0xbe98e9b3bd99239bU, 0x3e3889353e6a0b9aU,
  0xbe3f36973d9f484eU, 0xbdac9bd93d7efe01U, 0xbdd086c03c643989U, 0xbd055b48bdf57891U,
  0xbcaa21243bc689d0U, 0x3e3f4d4fbdf4b96aU, 0xbe109a8bbe09de9cU, 0xbc4c89f8bcfff435U,
  0x3de4590e3d0838d4U, 0x3d0ff41a3d4f67d8U, 0x3dd6e619bd75efbeU, 0xbdd581afbd3e696dU,
  0x3d8df15ebd2eb4edU, 0xbe6baac03e9dfa37U, 0x3d259e74bace356bU, 0x3ce5c865bd7d7ddcU,
  0xbe1d6507bd9dd91dU, 0xbddbf6e6bd0f0306U, 0xbd90bb74bc16de15U, 0xbe1400f5be69b8e0U,
  0x3e2437ecbe50b966U, 0xbe18af68bd93fe88U, 0xbe17db3bba718005U, 0x3d287ef43e23911fU,
  0xbe53f0323dd8354cU, 0x3da1f93a3e170f04U, 0xbd3933d5bda85d60U, 0x3d2e8b053e1e9f84U,
  0x3dd723343e14403fU, 0x3e2ef2ab3e460bfaU, 0xbcd8ec163d5712daU, 0xbdef37b8be43102dU,
  0xbe1a12cf3d206904U, 0xbdc6d8ffbda8e223U, 0xbd06771abded5f60U, 0x3dc55d60bde63782U,
  0x3d4606bb3d04dec1U, 0xbe593dbcbd8c7c0aU, 0x3e39c493bd3556e9U, 0xbe3091ef3dea3b3aU,
  0x3c4b52c63a984edeU, 0x3d7da707be03e711U, 0x3e0b8e51be5e97b3U, 0xbdc04a473d1a9c85U,
  0x3e25bfaf3d986bedU, 0xbc8fd6ecbe1a032cU, 0xbe1417a63de23487U, 0x3d981b263ce3c9ceU,
  0x3d52e1143ac8ee9dU, 0x3df3c45b3ce2e09aU, 0x3d024426bd943252U, 0xbd0ff981be3d9d80U,
  0xbd95434fbdf3dea9U, 0x3da0df6a3cb17ab7U, 0xbe62d8b33e06196bU, 0x3e4b9d74be2b54d4U,
  0xbc170ed03db180daU, 0x3d799c0d3d606110U, 0xbddd24563c8f2e49U, 0xbd4d49113e2c8c33U,
  0xbc0646cabcc78574U, 0xbdb5cd20ba8b3a9bU, 0xbe14a990bdd71ec9U, 0xbe1e9e4dbdcacd35U,
  0xbda6c4abbc259e2fU, 0x3cdb14f0be03418aU, 0xbe04b441bc551213U, 0xbd4e09c13daeeecfU,
  0x3e676ec43ddd52d0U, 0x3ca14ec5bbfbb3c1U, 0x3e2bccbabd7ba9d1U, 0x3e79a87c3d9b2a47U,
  0xbdf89e30bd83f5beU, 0xbe872b123dbbbabdU, 0x3cd3f13b3d4ed102U, 0xbdced0a3be265a12U,
  0xbe17ae2cbe7e9497U, 0xbe0c4ba73da54d19U, 0xbd8dc5dd3d0ee1f3U, 0x3d97a15cbe022bdaU,
  0x3df5d07cbe3b7dc9U, 0x3e0b3243bd5d6ce5U, 0x3bed2b3ebe99ac2aU, 0xbd527726bdaf5d54U,
  0xbda75ab8bcc9078eU, 0x3e0bcb293e026025U, 0x3c4bb316be4fcf53U, 0x3d2bcc9dbcc266c1U,
  0xbe76a5a83eb20352U, 0x3dd3479a3db51064U, 0xbd5a1e8abe5514c2U, 0xbe2cec67be3ddaadU,
  0x3b6544023ea337a4U, 0xbd938349be413e78U, 0x3e49d3ebbe7e0293U, 0x3e19bfabbe0621cbU,
  0xbdcd5ec03d6b533bU, 0xbd8ed803bde6f142U, 0x3e1ef6b93e8274a7U, 0x3c9a852c3e1d9564U,
  0xbcfba2cabd7987bcU, 0x3dfc02d1beb15c7bU, 0xbc3da330bdc9b9cdU, 0xbe300d9bbd124e04U,
  0x3d5fd6e73d7a1cb8U, 0x3d1e4ecebda8b29fU, 0xbcfc6f48bdda63d9U, 0xbe6201b83d6db075U,
  0xbd06e2a5bd03f163U, 0x3d8820e3bd9d27a5U, 0x3e86a1e0bd8cd939U, 0x3d215288bd823437U,
  0x3c8eac82be0c762dU, 0x3ddd56813cb9ef94U, 0xbe47da903e1a62e5U, 0x3e55fc6e3d8ca777U,
  0xbd8306493ca51543U, 0x3e066d13be275ec4U, 0xbe198cc4bba9bad0U, 0x3df72927bd9e4f2dU,
  0xbd2e125bbdaee76cU, 0xbd863fe93d0e9110U, 0xbd866445bd7579d8U, 0x3d5a28e1bd9f8dd1U,
  0x3d0148123c54099bU, 0x3d4fc2d33d1b154aU, 0xbd5567c63bc4836aU, 0xbe070116bd263d6cU,
  0x3e2452583e421bc5U, 0xbda86d34bd0331f5U, 0x3d8a9a3d3dd64c35U, 0x3e1fea03bd30fe8bU,
  0x3e3c6ff1bdd8015cU, 0xbe4d8430bd9fd345U, 0x3dbcc004bdfd4c09U, 0x3cad2f8bbd8c0fc1U,
  0xbd492943bdd39a96U, 0xbde0de953daa1e90U, 0xbce34814bd576550U, 0x3dacd751bd960ff3U,
  0x3d9732c1be2707e4U, 0xbe3ed03ebe2fe0edU, 0xbe11e907bde531d3U, 0xbc01a3d83d12750aU,
  0x3d4d22253dec452fU, 0xbdfc76023daf8bd2U, 0x3dda7182bdb3d84eU, 0xbda44bd7bcf98d91U,
  0xbe1080a13d4a5cd1U, 0x3d4fb7903e0fba00U, 0x3d816cf9be1099b2U, 0x3d9e35a1bd9261f7U,
  0xbd6912593c416044U, 0xbe411ffc3d9300d8U, 0x3e15671e3de740f1U, 0x3e235e3dbda3d1fbU,
  0xbda54c37bdc9b5a8U, 0xbdeae13b3cbbbc1bU, 0x3e2e0b113ba92275U, 0x3d9d48963e04c511U,
  0x3dc42b373e3abccaU, 0x3cd25af8bc2d3528U, 0x3dd4270a3b93344dU, 0xbdddb1a43d2fee0aU,
  0x3d9e35d13da099afU, 0xbde9690ebd06b50dU, 0xbe301372be0d30a6U, 0xbe8fed073e2d7805U,
  0x3cf81679be94f55fU, 0x3c0a54debd056a34U, 0x3d9e8fa3be60dec6U, 0xbddf2556bd9ac90dU,
  0xbd89e874be4d89cfU, 0x3d9cfbb83da0e074U, 0x3aaef6dc3d314401U, 0x3df7a431bd2f17afU,
  0x3dc6a487bcaa0db8U, 0x3e8f6ca73d33782eU, 0xbd26945c3e15cd59U, 0x3d63df1dbd55b0fbU,
  0xbe47e7a0bd885e6bU, 0xbdfa50133d34859dU, 0xbbae00b0bd7611a8U, 0xbe871e94bd479104U,
  0xbc4ff2febe33ba02U, 0xbd1d04a53a8eb64eU, 0xbceddd35be54bd60U, 0xbce1b2f43dfab2bbU,
  0x3dcb83b63cffffefU, 0xbd9145a13dd88e4bU, 0x3e6d90dbbd472ac4U, 0x3d4f7083bd8e580eU,
  0x3db07d8fbd824600U, 0xbd1cc7ff3e1ea603U, 0x3de7c834bd5dfcd0U, 0xbd01da35be319e2fU,
  0xbd679cab3debccdbU, 0xbd2969cdbcb74426U, 0x3dd0f3e1bdba9c0aU, 0x3db0edb1be182735U,
  0xbd2e8847be28523dU, 0xbda5abefbd70346cU, 0xbe330fdc3dc6b943U, 0x3df06810bd92520fU,
  0xbd42d9f3bbad9efaU, 0x3de9872d3d5b5460U, 0xbda92226be8320e5U, 0xbc74d8c7bddcd567U,
  0xbd5ddbf63e12d8e3U, 0xbbcaeb643d552f36U, 0xbdbe4e7dbd1a001cU, 0xbdd7cad8be1cf1aaU,
  0xbe84c0d63e7da70aU, 0xbe011a5b3d0f3a29U, 0x3d386393be214ddfU, 0x3d01dddcbe265a14U,
  0xbc98693ebd525e6cU, 0xbe3380e7bd4cea57U, 0xbc82e79d3dcc44f2U, 0xbe2f0ee03de81ae4U,
  0x3e6d3100bd282b32U, 0x3e912bd5be43e79dU, 0x3dae2e96be587bedU, 0xbd965ba13e1363e5U,
  0x3dc2732bbc98f2daU, 0xbe6825973dad67e9U, 0xbd7971edbe5da78bU, 0x3d5e3dd03e173889U,
  0xbda6d5ddbe45f05fU, 0xbbd5a941bd87164dU, 0x3df5908ebd5d748aU, 0xbdab1c03be27dcc9U,
  0xbddcd661bddfe50aU, 0x3d6b4e44bd8c34ceU, 0x3d08aac03dff41a8U, 0x3e6e6f403e306e16U,
  0x3da6c7a9bd1db134U, 0x3dca501dbe430b7cU, 0xbca6e7ad3dbaf2f7U, 0x3c4847f23e21ae13U,
  0x0U, 0x0U, 0x0U, 0x0U,
  0x0U, 0x0U, 0x0U, 0x0U,
  0x0U, 0x0U, 0x0U, 0x0U,
  0x0U, 0x0U, 0x0U, 0x0U,
  0x0U, 0x0U, 0x0U, 0x0U,
  0x0U, 0x0U, 0x0U, 0x0U,
  0x0U, 0x0U, 0x0U, 0x0U,
  0x0U, 0x0U, 0x0U, 0x0U,
  0x0U, 0x0U, 0x0U, 0x0U,
  0x0U, 0x0U, 0x0U, 0x0U,
  0x0U, 0x0U, 0x0U, 0x0U,
  0x0U, 0x3dbd40373ddeb72cU, 0x3d876f793d883189U, 0x3da29a6c3e0af114U,
  0x3de9c0b23d958ba4U, 0x3db1ebd13d8398f7U, 0x3d517b9f3de85f15U, 0x3df5412a3e246e38U,
  0x3e02091f3dbccc02U, 0x3d5483773dd83d91U, 0x3db1a8ad3e2f425bU, 0x3e10f6853e1fa3b3U,
  0x3e0cffdf3dc28d9cU, 0x3dcf72f53d9fc0c5U, 0x3ddf0aa23d8a2494U, 0x3e267dd13dcb918cU,
  0x3f7d87bd3f8b2ad8U, 0x3f84d2783f830f62U, 0x3f82f4b73f86fecfU, 0x3f8588f53f7fcd9eU,
  0x3f80d0bf3f828e4eU, 0x3f844df03f8fb9fdU, 0x3f895f6b3f85a452U, 0x3f80e4c73f8235e3U,
  0x3f82144a3f7a41f8U, 0x3f7ff5de3f834052U, 0x3f81195e3f727de1U, 0x3f80d3193f814a55U,
  0x3f744d493f8261ffU, 0x3f814c1a3f827863U, 0x3f7c698c3f80d5e9U, 0xbcaf1b7cbdac3ca4U,
  0xbd8ff4acbd802a50U, 0xbd8740013d886f71U, 0xbd3c1dddbd06381fU, 0x3d985561bd436813U,
  0x3d183376bdae2558U, 0x3b1098fbbd999098U, 0xbc71071bbc7d7446U, 0x3dd3a4973c9f02d6U,
  0xbd0236b13d080aa5U, 0x3d3bbeb33bc2607fU, 0x3d696f08bda70abfU, 0x3cc4c0ffbd99e328U,
  0xbd603360bcbec3d6U, 0x3d8a9cda3d1e1cdeU, 0x3dbd1c633da6460cU, 0x3d77b3a13d848b6bU,
  0x3d7c3cf03db45107U, 0x3dbab0c73d7c7492U, 0x3d2e24413d4e4d70U, 0x3d3e600c3d7b06eaU,
  0x3dc8c6e63e0bb772U, 0x3db37bbe3d8c18baU, 0x3d123db33dd2251bU, 0x3da67d9d3dd9c20fU,
  0x3ddca4283df171f4U, 0x3dc53a073d8a4b5eU, 0x3de8adf33d476c1cU, 0x3da8f2103d6d0294U,
  0x3de388e53dc36258U, 0x3c4158b03b894e1eU, 0x3b18f9ea3c29a45cU, 0x3c4ebfe0bc897926U,
  0x3cbbe9553c20b558U, 0xbc1e1b143c1a3036U, 0xbc2c6c5f3c170167U, 0x3cb936df3cd49d52U,
  0x3d0584ce3c3bee60U, 0xbc31adc2bd1e6b2eU, 0x3d0fa6ecbc837f46U, 0xbc2cb260bcf06828U,
  0x3b2aa8543cca1e42U, 0xbc8cd1d93cb57ca0U, 0x3d16fe29bc92bbeeU, 0xbcc15da43b1398a5U,
  0x3c84f4313d283f8eU, 0xbbfb95df3bf88fc8U, 0x3c1cd0dabd1c8206U, 0xbd12185b3bc8362fU,
  0xbcb12f2b3bae2c2aU, 0xbc286c63bc449bcdU, 0x3cf84e803b58b6ebU, 0x3d3732393d2e4195U,
  0xbbee269dbd1576d7U, 0x3d0619d5bcd7f24eU, 0x3caed57fbd6b9331U, 0xbce5cccc3c343653U,
  0x3d2779a7bd2b0faaU, 0xbd12c90abc9ba460U, 0x3c11facbbb48260eU, 0xbd0b00beba9427f8U,
  0x3c89cebcbd2b4d75U, 0xbd4d23bdbcb1b075U, 0xbbc22a01bd467445U, 0x3d5c04ecbb7f1ff5U,
  0x3d424eb4bd49aa2eU, 0x3ca08dd73a7d23b5U, 0x3d0d44ac3c1efbd6U, 0x3d3a1420bd5a08bdU,
  0xbd9496633d6d2d7dU, 0xbcc0cb8b3c747c02U, 0x3d736ee3bc33c814U, 0xbc6a1168bda38af4U,
  0xbd24ab02bc873b08U, 0x3d0392673d1bcee7U, 0xbd85d88abd9369bcU, 0xbcab0363bcdf094bU,
  0x3cfa8eec3cf58c85U, 0xbdaf5662bd7aed37U, 0x3d632dd9bc29e222U, 0x3d3a386cbca2f98fU,
  0xbcaa4983badaec20U, 0xbc9d1ad7bd88a154U, 0x3d8186343cd2bf80U, 0xbd4858763dbc2598U,
  0x3d0bdd38bd19cfcdU, 0xbcae0516bcfad784U, 0x3cb567afbd84be36U, 0xbc576fa63d9788c1U,
  0x3d772731bcb98b0aU, 0x3d02285e3ceddcc6U, 0xbcf42a54bd84ce6aU, 0xbd9ad7713d9ea07eU,
  0x3cd3088dbc2b42c2U, 0x3da6baafbbdc19bfU, 0x3cc1a148bdadd542U, 0xbc3c39bbbc0c6247U,
  0x3c5dbff4bdabffb5U, 0xbc89ccddbb829f0cU, 0x3cd396c33db37682U, 0x3d8d9b02bb76cbe4U,
  0x3d165526bc41243eU, 0x3dc05277bd8af723U, 0xbbb1c351bcd55b24U, 0x3c97f9ac3d5b1e17U,
  0xbb1aebdbbd4ed711U, 0xbd9611273c01e2eeU, 0xbc84499d3ccbf483U, 0xbdc83645bd9a1b76U,
  0x3dc9e781bd7c2455U, 0x3dcde1d5bcae9c16U, 0xbdb1af26bcfff323U, 0xbdb3dd4cbd5bd504U,
  0x3d600c89bb5846feU, 0xbdcfef243c1090f6U, 0x3d4ec45d3d7ad1fcU, 0x3da59eb0bcba2cd0U,
  0x3c8215c03ce9ebf4U, 0xbd3e32a23d50e58dU, 0x3d6626c43dc5c7d5U, 0xbd28dae3bce65abdU,
  0xbdaf0000bd176bceU, 0xbd6335423dd053cdU, 0xbd114ed6bcd0b429U, 0x3c124671bc37b306U,
  0x3da22e73bccdbec9U, 0xbdae9921bd90606fU, 0xbcf13cadbd6ded13U, 0x3dcc9c83bc0aa229U,
  0xbd7ef1293cc0fadfU, 0xbcbcb53d3d85dcf2U, 0x3dc3e461bcdc4d04U, 0x3c49112c3bca6380U,
  0xbc88284d3d65ca02U, 0xbce8b04ebce21245U, 0xbda25a213c1b59afU, 0xbda2814abdc8eb94U,
  0xbc4ee7b43d8d9b08U, 0xbd5c0153bcdae23fU, 0x3db05cecbc4d9816U, 0x3d29fd0abd83f81dU,
  0xbd071115bba74117U, 0xbd941ba33cab17aaU, 0x3d9b0c41bb52d4aaU, 0x3cdc2ceeba110cb2U,
  0x3d92c3db3b6b08caU, 0x3d88cf1abce90ae7U, 0xbc2709c93c2661eaU, 0xbda1e83aba3d1372U,
  0x3a9ee8e33d8b8300U, 0xbdac40febcaa5e6cU, 0xbc6512bb3c6a5b65U, 0xbca32f1ebca106b2U,
  0xbdbc8492bd786c36U, 0xbb65638cbd00894eU, 0x3d0a6489bdb02c46U, 0xbc66c7c6bd884f23U,
  0xbd4e8753bd68898aU, 0x3daa4fd93d403183U, 0x3ce6abce3d4dede4U, 0x3ca82ab23caccf82U,
  0x3da56fa5bcda535fU, 0x3d846777bdb4d3f1U, 0xbd65b5fc3d63dd8bU, 0x3d849eac3d0bd54eU,
  0x3d0e02b6bd515c9cU, 0xbda5f4cfbda7d582U, 0xbc9e8c2a3dc5443bU, 0xbd034d85bd976b97U,
  0xbb44c843bd67c9daU, 0xbcacf0c1bc71cc1eU, 0x3ad2a50abcfe7223U, 0xbd94d79fbd3ae9ffU,
  0x3d61890e3daaf0fcU, 0xbc3e7c253d51bbfeU, 0x3d896c653d3112e9U, 0x3cd31fbb3c191172U,
  0x3d8b88373c2b22baU, 0xbd79701bbcf7e1edU, 0xbbb57d803dc1c72bU, 0xbc913cd7bda935aaU,
  0xbd9fd000bc533f0bU, 0xbd6f37603d813754U, 0xbd38e2893cd5bbe7U, 0x3d443ddcbc648d25U,
  0x3db089c7bd25411aU, 0xbd88e998bcc072a0U, 0xbdb00c89bd2fe797U, 0x3dd673dd3c1b567bU,
  0xbd174c073dbf5462U, 0xbce94a1b3c83bab9U, 0xbc8a140bbdb2349bU, 0xbc8689d0bdc726b0U,
  0x3be8c1d6bc6cf861U, 0x3d6cfc563d290187U, 0xbd1806a3bd685025U, 0xbd556c7dbcfaee13U,
  0x3ca28f743d016d1fU, 0xbd06f360bcf47f15U, 0x3dd01b2dbd4975a0U, 0x3dacb8bc3cd4e0dbU,
  0xbcd5ebd8bd981348U, 0xbd381791bcbd3dabU, 0x3d57dc443d162cd8U, 0xbc6c38083d3c5dedU,
  0x3d80eefe3c6732caU, 0x3d9c8efebc8645a2U, 0x3d327e5fbda6c803U, 0x3cce1fba3da18351U,
  0x3d9e53c43dd28cb2U, 0x3bb50bdfbd80ed6cU, 0x3c0ffc37bd458045U, 0xbd7fa0fc3d42d92fU,
  0xbd989016bc3f6f47U, 0xbc8d00c3bd082becU, 0xbc89158bbda42f8fU, 0xbca0d1f8bdc46820U,
  0xbdb593a1bdc5d08aU, 0x3d60d0273c84f75eU, 0xbd6861e43d349448U, 0x3cb206ff3d9a4b55U,
  0x3d5613afbd4df0e4U, 0x3d86863f3c8f1d1dU, 0xbbf7771e3d513b30U, 0xbd131827bb85c2f6U,
  0x3b7b0709b8e66f91U, 0xbd6ec1d6bdbf76deU, 0x3be477d83ca7d146U, 0xbceb66efbce8ff23U,
  0x3d1d20733c131073U, 0x3d5686f8bdc26b67U, 0x393cecc23cdea169U, 0x3bfb4145bdb41b66U,
  0xbb056b72bd0dc27aU, 0xbc912a673da3d244U, 0xbb854a133d01769dU, 0x3d1cd90bbd4f1409U,
  0xba45eeecbdba915cU, 0xbca528b13cb93205U, 0x3ce9a64e3d33a567U, 0x3c770261bc8990a2U,
  0xbd8bf48bbd04a3bbU, 0x3c09adcc3d68990aU, 0xbd16e08abc989600U, 0x3d8fdd11bc84f331U,
  0x3bf82867bdb23adbU, 0xbb722da63c30a746U, 0xbd887a44bdad9463U, 0x3dcdbe593d84bb13U,
  0x3c79e8c73d51564cU, 0x3d74e5a9bd0c59daU, 0x3d49e505bd31da0aU, 0xbc0127bcbc4f0046U,
  0x3c9e12c13d320605U, 0xbd3253e03d857addU, 0x3be03e98bd80cbe6U, 0xbcec9edebd7b4022U,
  0x3c8c11f73c4c420eU, 0x3cf3b351bd80dbefU, 0x3d75e3643ae070cfU, 0x3d10d4b1bc6b0eb7U,
  0xbd98be043ccfb752U, 0xbd44c0c1bd009bf3U, 0x3dc3f021bc67db3fU, 0xbc16a49a3d521242U,
  0x392b5d3b3da881f7U, 0xbc11e489bd6e105dU, 0x3d7676b73c32d235U, 0xbb91c3313c9d1fbdU,
  0xbcd6a9d43dca158fU, 0xbb316292bc8ccfffU, 0xbd555c5cbc1ecfe5U, 0xbdbf6ebb3db3d33cU,
  0xbdc1ab563cf7a837U, 0x3d4559ddbdb0af97U, 0xbb2f38f73b94341bU, 0x3bc04d08bc2a14ecU,
  0x3b88496ebdc72d1dU, 0x3d5f9b333c863d58U, 0xbdb6dcb53d2c1b7eU, 0x3d156a1d3da8c273U,
  0x3dad0717bdc908f4U, 0x3da41fdfbd2b2c9fU, 0xbd8736233b2f1954U, 0x3cd94a02bab7196aU,
  0xbd646577bd415b4dU, 0xbdabf218bce2a403U, 0xbd0a1dda3c9583caU, 0xbd95d56d3c40b11cU,
  0x3d37fe2ebd8191aeU, 0x3d99d6f5bcf37158U, 0xbd3a4e2c3cb8f5ecU, 0xbd97d485bd942cc7U,
  0x3d36de513d9c2d30U, 0xbd0c0ca53b0c36ccU, 0x3c80cd503ca03440U, 0x3dbd9c973ccb6e78U,
  0x3cf2d24dbd1a5f6aU, 0xbdab94babd029d2dU, 0x3d4ae03e3de8e92dU, 0xbd7589b9bd0292b9U,
  0xbd5e5574bbe68d23U, 0xbd2d69e33cc17ffbU, 0xbb27a4a6bb1e681cU, 0x3d8baf2bbd696f45U,
  0x3caaab45bdb0f754U, 0xbd9820503cab4d70U, 0xbd5a83e5bd5e4cbfU, 0xbcc22e9d3d7f0135U,
  0xbd7d4e583c8ca306U, 0xbcb471f43d05fac7U, 0xbc8c48c8bda3fcc5U, 0x3c10a7fbbd9c3fc4U,
  0xbda08cae3dd1748bU, 0x3cc64eca3d9184ecU, 0xbd2c992abcc5e279U, 0xbda6badcbd265060U,
  0xbdd8eee53d627911U, 0xbdb3de8fbdd7c9ffU, 0x3dacc37bbd5a8e99U, 0x3c102f71bdbe5b99U,
  0xbd19da24bc4fc509U, 0xbc3b34c1bdac93e7U, 0x3d6784813d2533ffU, 0xbd29a7153de16481U,
  0x3d0ae6633c4c7a3bU, 0xbc3e4b9fbb60b295U, 0x3dd5477c3bcb8ba1U, 0xbd607ae53d6a5b48U,
  0x3dd8ebe43db65913U, 0x3c975152bd8fbd23U, 0x3c4e01bfbd42e4efU, 0xbdc0274e3defaf0cU,
  0xbd6df956bd569f26U, 0x3d304cb7bd04b547U, 0x3d3c23563bbbbefdU, 0x3bdf871a3c0fb9f0U,
  0xbc8acab7bd29be42U, 0x3ddad0a23d85d087U, 0x3b189978bc8f6e9aU, 0x3da037383d491c4dU,
  0x3ddf8145bd823231U, 0x3d8d1757bdbb789eU, 0xbc88c2e53d8cc8e8U, 0xbbec0ee43d8d95a5U,
  0xbc895d7ebb29abecU, 0x3cb8de9bbdd73266U, 0xbde1b1dc3ddb9618U, 0xbd48bbf43c1ba160U,
  0x3b3781cc3b1055a4U, 0x3cba5c44bb9f9175U, 0xbdcf5283bda970d0U, 0xbda91b4abc1d57c8U,
  0x3d8ac2783d8b9136U, 0xbd7014983dbffa44U, 0x3d71696e3bdbde0bU, 0x3db35890bd58900bU,
  0x3ddd2980bd93641bU, 0xbdb40a0c3d1754adU, 0xbbaf97d13d2d9c8dU, 0x3d02e995bd43cd5bU,
  0xbd69c486bde95b62U, 0xbd927e563cf28912U, 0xbda6baf8bda0b0dfU, 0xbc018f6fbdcdaa7fU,
  0xbc5eca1cbd90c35cU, 0x3b5cb601bd8eb362U, 0x3ca094f5bd62603eU, 0x3d836531bcac853eU,
  0xbcda91533c1f07f9U, 0x3b98a7c53d33f69bU, 0x3c9677ff3c92f466U, 0x3d83b7883c0a3d7aU,
  0xbc60b7b93cc3c74cU, 0x3cb44bdf3d7ce4e0U, 0xbd34ad49bda516b9U, 0xbc80f003bd5217a3U,
  0xbd60cae43d814ee7U, 0xbd3ecd46bd83f6c2U, 0x3ddeaaa13782c071U, 0x3c9832e9bba66039U,
  0xbd92b4bcbdbe52ceU, 0x3bb06175bc6fea53U, 0xbc13b9f9bd3865adU, 0x3b8f8003bc79b404U,
  0x3ce3ed053d8d9f2cU, 0x3d205d57bca9d250U, 0x3c6b9104bd07eda0U, 0xbc86df77bc9ac2beU,
  0x3b6ec2563c2da7d1U, 0xbca65c34bda23f9dU, 0xbd9d1d37bb94e9a0U, 0xbd54cb3e3d1bcc07U,
  0xbd6862f0bdab6cdaU, 0x3db181d6bd00d9d9U, 0xbbcffc26bcf853d7U, 0xbdce677f3c30b1e9U,
  0xbc3622fcbddd23d2U, 0x3cbe78ecbd16974aU, 0xbcd64c4a3db34e25U, 0x3da5fb863d9c0327U,
  0xbc9a3726bdc1fee5U, 0x3d761827bcc7dbaaU, 0x39f6ecb93d90e87fU, 0x3d05cd5d3d7d5844U,
  0x3cd7a6ebbc904af6U, 0xbc5f053ebc67a878U, 0xbd522f5f3df19b51U, 0xbcb7d6163c656b21U,
  0x3d767b6abdbd32ffU, 0x3dbebeb83b89c287U, 0xbd8045f73c603263U, 0xbcaca66cbd1d1adbU,
  0x3d41ac3e3cb304d9U, 0xbd95a2c43c1f6c25U, 0x3d9838ef3d6b6ed1U, 0x3d62091dbd0a81d4U,
  0xbc9fd818bc255acbU, 0x3bee0e443cd79c8aU, 0xbc157f4c3d7b8304U, 0x3bb96fd8bc4fd5edU,
  0xbda4e756bdce791bU, 0xbdb0cb1a3d92e4ecU, 0xbd868480bcec392eU, 0x3dc6116d3b3d37f0U,
  0x3ca56158bdb154a1U, 0xbdbd3f71bd8ed243U, 0xbdc07716bd44260eU, 0x3dbb02b1bceace2dU,
  0xbde439e33ddf9ebcU, 0x3cf8b3be3ddb4a9aU, 0x3d9e293abd3cdf90U, 0x3c9a8f91bd826963U,
  0x3b775a343c9f1246U, 0x3cd77cbc3df9b31aU, 0xbd617c69bd11fc98U, 0xbd58c118bd0db5f0U,
  0xbdcaf28e3dc59022U, 0xbd17d61bbdb36b79U, 0x3dd5f11abccc6f4eU, 0x3cb6059dbd63da70U,
  0xbd957648bcc06ef0U, 0xbcfb2f62bd82d80bU, 0x3dc8c0d83b267000U, 0xbd8030963e0d1540U,
  0x3df512893d15c395U, 0x3ddc1e6fbda78af9U, 0x3e0c00b0bceac812U, 0xbda7be8c3d4e5eb3U,
  0x3db4cddd3d1a0b3bU, 0xbdb9ec22bd0cbb71U, 0xbc1520fcbd9ffd5fU, 0xbd7404ab3dd52badU,
  0xbe3252babd9213caU, 0x3e0b611dbd6fa077U, 0x3cbeef36bc4d2ab1U, 0xbd748467bd8062e5U,
  0xbe3deea7bdd2fd59U, 0x3d665f5b3e15cbc7U, 0xbda2958b3d7b479cU, 0x3e13868b3e20f6b4U,
  0x3d6e27fcbd0950f6U, 0x3e2901febd9b49a6U, 0xbdafd5783db74ee8U, 0x3d8e4b453dd6ea33U,
  0xbe4ed736bcbb700eU, 0xbd81b825bdda6fc9U, 0xbd8776193d6b28d5U, 0xbdea93fabdbb2d35U,
  0x3e08933abdb3a174U, 0x3e139b29bd8561d1U, 0xbdb9d27bbe15193aU, 0xbe640668bdf14badU,
  0x3cfc52b73e3987d5U, 0xbe0db57f3e0eba1fU, 0x3dd996d63e675b08U, 0x3df20954bdbfc8b8U,
  0x3e7344a1bd8753feU, 0xbe2339243d367125U, 0x3e0733443dc81e97U, 0x3d5494f53cd300d2U,
  0x3d01a1aa3d139e5eU, 0x3d0be07fbd342069U, 0x3d518d213d179ae6U, 0xbcfc78cd3d0e323aU,
  0xbca3589f3ca2afafU, 0x3d2786123d2a3b43U, 0x3d59debe3d6576daU, 0xbcebb439bd5ed4e1U,
  0x3d66636dbd6b418eU, 0xbd4a6909bd73e713U, 0xbd4fd15c3d2889e0U, 0xbd5b90733d52096dU,
  0x3d62173bbcefed16U, 0xbd715035bd6f93adU, 0x3d9f6bd33d7fa35eU, 0x3d8128343d919a0dU,
  0x3d96fc3ebd7ced28U, 0x3d8a62493d9ab853U, 0xbd87d9783d998029U, 0xbd83f3a43d650803U,
  0x3d9fa1753d8d0cdaU, 0x3d9dbe113da4d7fbU, 0xbd885d36bdaf5941U, 0x3da03c35bd96b1a3U,
  0xbd9d9136bdaf9c2aU, 0xbd8809bf3d8a25f6U, 0xbd88bc253d8e549cU, 0x3d911b33bd9e7db9U,
  0xbd9a0564bdb6648fU, 0x3d871de93d6256a4U, 0x3d674e3a3d7a2734U, 0x3d935940bd6413c2U,
  0x3d809e8a3d88e2e2U, 0xbd725cc23d82c6e9U, 0xbd90decd3d631358U, 0x3d9101d13d70c25fU,
  0x3d896d963d852c98U, 0xbd77d68abd993213U, 0x3d91480abd64cf48U, 0xbd86d5d4bd9206dcU,
  0xbd5d40263d51a725U, 0xbd6519613d585d86U, 0x3d67ad69bd863de1U, 0xbd6fb1cfbd7b7a61U,
  0x3d7a95c63d1f8b9aU, 0x3d3bdae43d3dbe2bU, 0x3d5a0eabbcc1faa8U, 0x3d2ef6a53d3d559cU,
  0xbcd1e5383d39185aU, 0xbd4818e03d1a1b1fU, 0x3d477a643d28eddeU, 0x3d1880253d312b7cU,
  0xbd2735d6bd3a17b7U, 0x3d2b0b25bd190524U, 0xbd3bdcf3bd47726aU, 0xbce92ff03d205142U,
  0xbd2253fa3d07ced3U, 0x3cc31989bd2e7a2cU, 0xbd1dbba7bd224824U, 0x3d0c3cd63c9bc8faU,
  0x3cd35b5f3cff871fU, 0x3d32789cbca5fdb1U, 0x3cf8cc793cc86eeeU, 0xbcd3c7623cec5993U,
  0xbd3de3123cabe28cU, 0x3d08b2cb3cd31767U, 0x3d069ac13d0439c6U, 0xbcce155fbd3f4044U,
  0x3d39c1bbbcb96a0dU, 0xbd02d925bd07aa05U, 0xbcb81e0a3ccc955eU, 0xbce623db3ca4c883U,
  0x3cb9f291bd3d324bU, 0xbcd3a700bd014c2dU, 0x3cca568d3c4c6b9cU, 0x3c615d513ca33430U,
  0x3cb20b3a3a963dccU, 0x3c17d8b63c96d10eU, 0xbc613acc3c503eafU, 0xbc9fcc3e3c462b6aU,
  0x3c3698573c83f25bU, 0x3cbf2baa3c2cdb77U, 0xbc72d53abc900a5cU, 0x3cb28fcd3a669161U,
  0xbc27ec4cbcb987fcU, 0xbc64c9223c6f2e92U, 0xbc9dc7b83c3a1408U, 0x3ce0a600bca7e003U,
  0xbcf75b31bba64c86U, 0x3c8807273bba3bf7U, 0xbb8f4fbdbaeed980U, 0x3c5ceacbbb88a838U,
  0x3c4c0be23c3e96ceU, 0xbbd3447a3cd53ce2U, 0xb8e41bcf3b9d7febU, 0x3c7047a33c9da65dU,
  0x3c76a4713c8c35feU, 0xbc019765bc953d6bU, 0x3cc4fe03bc01a4ecU, 0xbc0eb3abbc81018dU,
  0xbca56b3dbbcff0f4U, 0xbc79d42b3ba87570U, 0x3bf19552bc589bd7U, 0xbc7db0323a5ec9dfU,
  0x3bc2e4a33a99de13U, 0x3b6b85c93b8d3fccU, 0x3c5cf016ba353dc8U, 0x3ba7e1f53be9a623U,
  0xbace5b963c9ef52eU, 0x3bbe2b383a2377cdU, 0x3c0dba653b6383d4U, 0x3c0e8f773bcdc263U,
  0x3b3011d7bc47e657U, 0x3c19f2dbbb09ee54U, 0xbc390a74bbe75a0eU, 0xbb1e14543c9d6018U,
  0xbbbd63da3c87e7ddU, 0x3b82a979bc01ae2cU, 0xbbdb8455bca5b3ebU, 0x3c1e23e2bb5d77c9U,
  0xbbf3db60bc2d5d9dU, 0x3b0a39e03b15c6e6U, 0xbc330cbcbc20a903U, 0x39a7930c3ad30c42U,
  0xba9455abbb10bb4cU, 0x3c0cc00eb9a6e83aU, 0x3b5abd1f3b66bc08U, 0xbc786f93bb83a779U,
  0xbc2d228ebc1620c5U, 0x3c468539ba18a165U, 0x3bfb5cf63a8c4bc8U, 0xbc88d6c33b947490U,
  0x3ac034ecbb878838U, 0xb8e2386abc037207U, 0x3adfa135bb763e7aU, 0xbb7e3a4dba6e6bc5U,
  0xbc1ebbd83ba5dfd2U, 0xb86ef7ec3bd666edU, 0x3b6d1190b9702419U, 0xbc16efacbb97e4c1U,
  0x3a7ff549bb12f1beU, 0xba98f6ab397ef108U, 0x3b1f423a3a8db14bU, 0x387e9bbe3bad0813U,
  0x3c830ff33b768101U, 0x3c2479c2bc4549c9U, 0x3b00d793bc79cd3aU, 0xbab8fb683ac9afd6U,
  0x3ad352f5bb1dd9adU, 0xbb9131d4bbdbf1e7U, 0xbbc571e5bba0180dU, 0xbb6baa593bd1f039U,
  0xbbe8aaf1ba2d3db7U, 0xbc4957f63bb84d1cU, 0x3baea40d3c249baeU, 0xba0caec6bcaab265U,
  0xbb9248d7baddb0e7U, 0x3b87be373c5e4af8U, 0xbb47594c3ad687eeU, 0x3c21591a3be7a889U,
  0x3c1bad30bb9077adU, 0x3bac68353c0b9671U, 0xbb3fe0c93a4f50f2U, 0xbb6ee8f23abdb09dU,
  0xbc557f2ebc023e93U, 0xbc02a35cbba4de0cU, 0xbc6063c03c1638e5U, 0xbbcefd51bb735e85U,
  0x3c9c384dbbc54d94U, 0x3becaf0bbbd43fbaU, 0xbb53c956bbb0550aU, 0xbbe0eda8bb88ffc8U,
  0xbc018d37385aea74U, 0xbc5b89ec3c638206U, 0xbc2533f03c9233a9U, 0x3c3b68de3b82d733U,
  0x3c3828afbc01e2d5U, 0x3b8c271a3b2abbd1U, 0xbb7da94a3b8b833eU, 0xbbb157cabc212229U,
  0xbc272455bc66ed84U, 0xbc019d11bbacadf2U, 0x3ba51fcabcb64dfeU, 0x3bce47093c373020U,
  0x3c05c75dbc00a8dcU, 0xbc92170dbc46296cU, 0xbc4f79b0bbea13cdU, 0x3c5266c63a88577eU,
  0xbc922db33cea3a0bU, 0xbcca7ef43c546931U, 0x3c0c5b01bbf64a95U, 0x3c7750cbbc05e21cU,
  0xbb9b4935bbb0185bU, 0xbbe807b83bd43f6aU, 0xbb096d58bcb0e072U, 0xbca16dacbc2dc013U,
  0xbc2eb3183c8a6250U, 0xbc6ebc7bbc81d547U, 0x3bf959c8bbf3dc2cU, 0x3cc02e55bc29b6c9U,
  0xbc0b536fbc6c9c3bU, 0xbc3a72673ac29c26U, 0xb98f1e0abc14dc47U, 0xbc50a74b3cc7dde5U,
  0xbd0fd44f3c879d63U, 0x3bb43c21bc50737fU, 0x3ca6301fbc332d96U, 0xbc8db4d7ba90bc56U,
  0xbc6841b43c138003U, 0x3b11ba063b03dc45U, 0xbc70f5d3bc692ba8U, 0xbcdb77fb3c6eec77U,
  0xbcd0f644bc50263dU, 0x3c3783f1bc23ebc9U, 0x3be893d9bc1ebb4bU, 0xbc44582fbcc2bbb2U,
  0xbc1a9207bc5c59c7U, 0x3c95cb5dbc998956U, 0xbc779e6d3cf69667U, 0xbd2103d53cacb84dU,
  0x3bfc3027bc2c3bd5U, 0x3cc010bbbc61a0fdU, 0xbb3d68803ca20b57U, 0xbc2b882f3c992aaeU,
  0x3a8c7dcabcbb4b2aU, 0xbc86736cbbc98de0U, 0xbca0a6da3c9700f6U, 0xbd067574bc812302U,
  0x3ba7c24cbc5ba750U, 0x3cd1b0fdbcb8f641U, 0xbc91ace5bcb86fc3U, 0xbc127228bcff0f0aU,
  0x3c3672a8bc39ddcaU, 0xbc85739d3d028711U, 0xbcff620e3c73de10U, 0x3c1baa7aba051fc3U,
  0x3ce7edb3bc86e4acU, 0xbba349103c2c57dcU, 0x397faf573c28aa4bU, 0xb924865fbc956e7fU,
  0xbc9d00afbc1c42dbU, 0xbb78fa8e3cb65e83U, 0xbcc89d6fbc8945b8U, 0x3c7f562fbc89a4f0U,
  0x3c742002bc85d503U, 0xbce8d49bbcdf09f4U, 0xbbb32225bcaf2d24U, 0x3c98a449bc9ba3c2U,
  0xbc8af7283d064b22U, 0xbc57cea73d02ccb4U, 0x3c33b210bc91aaa8U, 0x3cea6077bc8c73d1U,
  0xbb864a5d3c838ea2U, 0xb86ea9323c74ffc6U, 0x3c8c11bfbc3111a3U, 0xbc3f6b26bcb92616U,
  0xbcadd64c3cd5b777U, 0xbcf70055bcc0821aU, 0x3cff64c4bce1bf82U, 0x3c55e586bc416314U,
  0xbcee030fbd03100bU, 0xbbc50098bccf9c28U, 0x3c79f3b1bc77698dU, 0xbc8523013d375037U,
  0xbb244f413d29e6c4U, 0x3c8fc5e4bc7f0145U, 0x3d35248fbcad008fU, 0xbc2835213cac7efaU,
  0x3bc5a81c3d277a8eU, 0x3c9a2ab1bc452e63U, 0xbcc954f9bcd460c7U, 0xbcc1cd173c93a2daU,
  0xbd0345d5bcec5ff2U, 0x3cb0c7efbcdc13fdU, 0x3cabcdf0bca5bc26U, 0xbd047741bd104403U,
  0xbb9d569fbcc61ab8U, 0x3c907f3cbc822024U, 0xbc5aadcc3d3a38a3U, 0xbba014ee3d33f6f0U,
  0x3cbb37d8bc800d28U, 0x3d077541bcc226a3U, 0xbc598d163c916521U, 0x3c66f8443d758bf4U,
  0x3cf246cdbc8a6c51U, 0xbcd6f9b3bd12f286U, 0xbcf43d653ccfe262U, 0xbd01522dbd097377U,
  0x3cb6f51abd18a772U, 0x3cc139fdbcb00712U, 0xbd0ce2d3bd1eea97U, 0xbb87150fbd283779U,
  0x3cca3a6fbc2c4646U, 0xbbed56593d2c5936U, 0x3bb870443d520507U, 0x3ca2352bbc56b8ecU,
  0x3c589215bcda0d49U, 0xbc97d6883cf03cf2U, 0x3caf14d03d698c77U, 0x3d2a614bbce8ecaaU,
  0xbce82cc3bd069bbfU, 0xbcefbf493d064b00U, 0xbce0e9dfbd199e8dU, 0x3ca04185bca42742U,
  0x3ccf3431bcb55c92U, 0xbd2cec30bd21c139U, 0xbb2a919cbd2bb4a1U, 0x3cb739d1bc9ac417U,
  0x394fc72b3cf4ba5bU, 0xbb109ab03d534169U, 0x3cd56ed7bcb44c98U, 0x3cef7199bcae7853U,
  0xbcb845b73d405432U, 0x3bd38d203d7cc118U, 0x3d19c5febce54ef9U, 0xbcf8f938bd139326U,
  0xbcc76ff43d0b43eaU, 0xbcbe02e8bd16bc35U, 0x3cdbae91bd0598f4U, 0x3cd7ea5bbceb4144U,
  0xbd443f0ebd23d02fU, 0x390649a9bcf5f885U, 0x3d1ddefabcbd3b87U, 0x39e551683d1385c3U,
  0xb9f1da083d6751f5U, 0x3ce75dcbbcc805a5U, 0x3cd4c599bcf603dfU, 0xbd018ab13cd465c6U,
  0x3c8d84993d5a625cU, 0x3d11a9e4bcdd0b87U, 0xbcc59807bd1ff1abU, 0xbd0cdc2f3d133bd3U,
  0xbca11e48bd369f80U, 0x3cf966ecbd35e501U, 0x3cdf945abc9ceeddU, 0xbd594177bd202925U,
  0xbbf2dbb0bd02bef5U, 0x3d0acfbdbcf42307U, 0x3bc8c8093d251a05U, 0xbb9e71333d3fd159U,
  0x3c478421bc641658U, 0x3cb79691bd03363eU, 0xbcbbe0ab3d2e206dU, 0x3c2cc7e83d84ba7dU,
  0x3d4b79b1bd057647U, 0xbd13bd27bd25377bU, 0xbcd208023d116f27U, 0xbc820569bd0a53c8U,
  0x3d01f93cbd1bd4b9U, 0x3c9c6dcbbcde5192U, 0xbd6f6405bd18b767U, 0x3b0a62e3bd0377d7U,
  0x3cee2717bd486060U, 0xbc8a0de63cd9356eU, 0xbc8bd9a53ca3f70aU, 0x3bc927c3bcd31e1aU,
  0x3bede905bd0547b6U, 0xbc8bdf433d5028deU, 0xbc1126c83d75cf25U, 0x3d146f30bd15d990U,
  0xbd58589abd2ee8fdU, 0xbd25ecce3d18ea61U, 0xbcafe89abd40e55cU, 0x3ca831e2bd2ae7e2U,
  0x3cc2cfb6bc5dc2baU, 0xbd7d7f4abd220dbfU, 0xb984ff04bd284d83U, 0x3ccd74bebd234d40U,
  0xbc9a8a2c3bcfa316U, 0xbbeb8f003cbe4139U, 0x3c5bb083bc5d193cU, 0x39ddc697bd41b769U,
  0xbc1778523d398461U, 0xbb4579f63d6c4de5U, 0x3b497aafbd2d3db7U, 0xbd3e0325bd52b067U,
  0xbd4160633d6f535bU, 0xbd2e7aabbd7c8937U, 0x3d2fb8d4bd3f685eU, 0x3d16d11ebc9badf0U,
  0xbd806218bd4d7372U, 0xbcf692c6bd53bba9U, 0x3d24a777bcea0162U, 0xbd379fac3cf29071U,
  0x3cd35ca33d311e18U, 0x3ca7403ebd30a88bU, 0x3c14ee83bd411824U, 0xbcb3d6ce3d4ac392U,
  0x3b619d573d816e74U, 0xbd625e79bd3a2feaU, 0xbd69f484bd7ba46aU, 0xbd724a743d6a32eeU,
  0xbdaae486bd79dcc5U, 0x3d8255a0bd7436ddU, 0x3d3cdcdbbd0c0be1U, 0xbdb99895bd929f0bU,
  0xbda96b64bda2c616U, 0x3d5498ab3c8f8528U, 0xbdb9d5353d80c1f0U, 0x3d7e95053d85958aU,
  0x3d5ea33cbd5b9945U, 0x3d2d4357bd6af3b1U, 0xbd613a3d3d73719fU, 0x3d39d70a3dacd680U,
  0xbe114469bd8f8f15U, 0xbd9a111abd8e3652U, 0xbda27af43d9622b1U, 0xbe1f75a5bd9edad1U,
  0x3da48051bda516c2U, 0x3d82616dbd337ff8U, 0xbdce3ca1bde2dac9U, 0xbe21e108bdfb5269U,
  0x3d9184873dc88331U, 0xbe1be72b3e0dd568U, 0x3df8bd273e0c9a95U, 0x3ddcf137bdaa0a84U,
  0x3e138d05bda49e9fU, 0xbde2a5a83d9f4d73U, 0x3de4d3b63df16188U, 0xbe844a1dbd9b9864U,
  0xbdcb7439bde98613U, 0xbdd94ea83ddf9645U, 0xbe5c3c7fbdde5e81U, 0x3de757bebde692ccU,
  0x3db66148bd684867U, 0xbe0fe153be18fac9U, 0xbe9029bdbe3b4b13U, 0x3dc4a26b3e503906U,
  0xbe6b49233e723131U, 0x3e5a3b9e3e6f530cU, 0x3e3f7942bdfe1924U, 0x3e924ab0bde85e2eU,
  0xbe42a4153dda6bbcU, 0x3e5f86f43e2bea0fU, 0xbed0395ebdd10560U, 0xbe09a204be16c895U,
  0xbe1597ea3e19e6c4U, 0xbe9aed9fbe17de2bU, 0x3e1f137abe37221cU, 0x3dfc3509bd9b4827U,
  0xbe22d708be59c99fU, 0xbed99052be84ecbeU, 0x3df5042d3eb05e61U, 0xbeb004213eba4f40U,
  0x3ea79a173ec04e53U, 0x3e9ea94dbe3a4b70U, 0x3ef38f65be1bb3c8U, 0xbe9eea4c3e1a2d34U,
  0x3eb37f953e73fc6aU, 0x3d02ff043cab7bf4U, 0x3c45ec6a3cbc353dU, 0x3bfd1e47bb7ad8f8U,
  0x3d083ec23c4de4d8U, 0xbc5bd5713b20135dU, 0xbbfc2a6b3a58c2eaU, 0x3cd666ad3c30ebc3U,
  0x3c1f781a3d28d01bU, 0xbc919637bd110181U, 0x3d080120bc60a62bU, 0xbcbf71cabd06b868U,
  0xbc6b81a93c99cd69U, 0xbc049aad3cc4a0a2U, 0xbb0d8fd6bcbfad0fU, 0xbc89086ebcaa15d0U,
  0x3c860ef83cda746cU, 0x3d1c7d07bcaa5235U, 0xbc0a45a83d557409U, 0xbd139c813bb325aaU,
  0xbcd9b06abc4ad0a9U, 0xbca8f6b63bed7df0U, 0x3cd8497f3c8f4e20U, 0x3caa20febcb00168U,
  0xbd3044ae3954016cU, 0x3d14ea5ebd245687U, 0x3cfd5132bd81ad85U, 0x3a976cb7ba6c512bU,
  0x3bd797873be69789U, 0xbd5af124bc8e087fU, 0x3d2780ed3bec1d91U, 0xbd4e1bffbd807ea3U,
  0x3a2078d83c8a50aaU, 0x3c0f37443d715a2aU, 0x3c288cb4bc0a7697U, 0x3c996976bd839098U,
  0xbc19bed23d02c3c5U, 0x3c08046b3d1f88f7U, 0x3b796b323d0bc9adU, 0x3d617503bc9279c7U,
  0xbbf8373abd1ae330U, 0xbcd089efbd2b9985U, 0x3d61edc43c73e716U, 0x3d3011fd3c4e30caU,
  0x3b73cb833d2970a7U, 0x3d8802b13c2c9649U, 0xbcbeda923cb627f7U, 0xbcbec0663cbacb56U,
  0xbd8cdd23bc960f48U, 0x3bb3c01339b15cacU, 0x3dbbeb72bc25b7a6U, 0x3d987ce7bd781e28U,
  0x3ce61f3f3c33cc15U, 0x3c94f56c3b57030bU, 0xbbc50e3fbcbf1726U, 0x3c9b8d1c3c6e6818U,
  0x3c2a09e5bd1876c4U, 0x3da32e693c309014U, 0xbc34614c3d00096eU, 0xbd15a44f3d0b232cU,
  0x3cafca3f3d43f8a9U, 0xbd22fc09bd28cf85U, 0xbd65f5b2bd1a41ccU, 0xbc555d36bcee707dU,
  0xbd09d16cbd6aca21U, 0xbcc8f761bc53d7b0U, 0xbc3e0c813b0ac4aeU, 0xbd09a1e0bd9b30ecU,
  0xbd4d2f01bda3097cU, 0x3bb996cfbd1ea535U, 0xbcbc88ca3b7e7c98U, 0x3d2d8edfbcb4e6b9U,
  0x3d2370d03bf8b702U, 0x3c8ccce2bdcce7baU, 0xbcf2b7463dc06a82U, 0x3d9165253d81bfa7U,
  0xbd56a38cbd0497b9U, 0xbdbfaeaebd465207U, 0xba7a891f3db26ea0U, 0xbb98e60fbbc2773cU,
  0x3c0eeb6ebdcb948dU, 0x3d94f4b1bbe7cd91U, 0x3c779e6dbd9b0f24U, 0xbd3f711fbbb62937U,
  0x3d414903bc6d7091U, 0xbdd5e9d0bc54908fU, 0x3ce684dc3c3f33cfU, 0xbcab3b16bd872d6aU,
  0x3dac082d3cf563b1U, 0x3c8bfc0c3da83a90U, 0x3d4406a83c0be85aU, 0xbd9de1c4bd9b5d95U,
  0xbdb274cebd0ce051U, 0xbc9271873d59a753U, 0xbcff2e60bd092723U, 0x3cbd1e4cbd359067U,
  0x3d924ecfbdbe0f65U, 0xbdb3fdcfbdb6cc09U, 0xbbb102f6bd8cd47eU, 0x3d80712c3cf28946U,
  0x3c1be72a3d74ed23U, 0xbcda92183d04e5f1U, 0xbc8399fdbdd1ba73U, 0xbc6fbee5bdb32b09U,
  0xbdc45e563dd3d5f0U, 0x3d70bf2cbc4186ffU, 0xbd9b718d3cd85d71U, 0xbd30e777bd40bd21U,
  0xbcaea7233ddd1472U, 0x3bedbb90bda2d92cU, 0xbc53a9adbd6c5dcdU, 0xbc9cd537bdc9882eU,
  0xbd7ac94dbc504ed1U, 0xbcefb7e3bcbabab5U, 0x3bd6a8773d55b78eU, 0xbcf172f1ba126fa5U,
  0x3d78b3c8bc3ce058U, 0x3c580463bdd5769dU, 0x3d346e22bd494b81U, 0x3aaa8dfa3c48ceecU,
  0x3d0a0a183d4721f7U, 0xbdb59eb3bda6462eU, 0xbb68e674bcf5305bU, 0xbd10dcaf3dae0924U,
  0xbd913e1cbd335eb2U, 0x3d6261c1bd00ed59U, 0xbc5619e7bdd27992U, 0xbc93ab3bbdc723d3U,
  0xbd3bdbb8baae7e8dU, 0x3dbf5dd5bd0228c6U, 0x3c50a4d2bc8aa675U, 0x3d076a7c3d8225e5U,
  0x3c9b4ea23cbd01d8U, 0xbc97b014bb9fb847U, 0xbd62f88fbbb31437U, 0x3d838b623d6aeabdU,
  0xbd06afd63c7f8590U, 0x3c88215fbcc060e8U, 0xbddcfb263ce317caU, 0x3ca4ac7abcb5eadaU,
  0x3cb57e76bd84fb42U, 0x3da903c0bce057a7U, 0xbd0440503c98d3f9U, 0xbbd27215bdb1dee2U,
  0x3d6627e73d596a88U, 0xbd65d6fb3d054d2dU, 0xbc762a913d64f705U, 0x3d6a4b75bbcfcdccU,
  0x3bc616ccbddbed86U, 0x3cbfe66abcdcb7dbU, 0x3d95211d3c1842c1U, 0xbd403aabbda4bd55U,
  0xbd7a8ffcbc80122bU, 0xbdd523d03dd88eb9U, 0xbd9b36b2bd929309U, 0x3d4483debd5ddbdfU,
  0xbb3679cabd8b9236U, 0xbcef62deb97e621eU, 0xbd906d27bd89375eU, 0x3d8f1cea3d5a686aU,
  0xbcb67ac73dd67023U, 0x3cc774223d3f83e4U, 0x3cc01dedbd8811a6U, 0x3d145cf13cd3c3d5U,
  0xbd99d4a53dd6dd69U, 0x3d4a11643b47c532U, 0xbd4b58bdbd075e0bU, 0xbd91460dbcd37a2cU,
  0xbc920a0f3dd7293dU, 0xbdb71140bd7fb02bU, 0xbcf37d9fbd8e8903U, 0x3dbb3dbdbde2d299U,
  0x3d064dc33cb93a47U, 0xbd1845253cece535U, 0x3d0fd1113d797654U, 0xbda46f6d3cfcc8d3U,
  0x3c95d152bd20c356U, 0xbcc487febd3a7227U, 0x3d8da218bc57f414U, 0xbdc0f9c03db6045aU,
  0x3dbcf05e3d04fc70U, 0xbd80df36bd8d64d4U, 0xbc862b1cbd3dac94U, 0xbda186a53c439e5dU,
  0xbd9bed14bd67e700U, 0x3cbedfe2bdd5cef2U, 0x3d7a9c9dbda96ec7U, 0xbc2513673ccd146dU,
  0xbcb7eae3bd5522e5U, 0x3dbfab51bbab920bU, 0xbcc2d90e3d8e2261U, 0x3d48a5bdbcc98265U,
  0x3d594d763cb68750U, 0x3c54dad2bdce8e92U, 0xbd2ef1153d1fa6beU, 0x3d2ec5813d0b743eU,
  0x3d1f047dbd5c93d1U, 0x3c0ca2f6bd87339eU, 0xbd1b5e013db5f99cU, 0xbd9b3a7cbd771b66U,
  0x3d1c820fb96b611dU, 0xbc8f2110bd9ca0ceU, 0x3d0974cb3c255896U, 0xbc883ba3bcc1160aU,
  0x3d3840ea3d2525a0U, 0xbc420ffbbc902551U, 0xbc86d5a43da88447U, 0x3c8234bebad6fbf0U,
  0x3db38936bd5fb042U, 0xbcb8561b3d56cbf8U, 0x3d8fb9153c91a5ffU, 0xbb997778bd76fbcfU,
  0xbd23ec73bd92b255U, 0x3cbc72f33db1b78bU, 0xbdc65075bbf2d998U, 0x3db1f781bc4b77e5U,
  0xbbba01473c44dd53U, 0xbdb1398c3c46711eU, 0xbc341722bd395c2bU, 0x3db714ebbcc3801eU,
  0xbd999a65bc37e040U, 0x3d62a8553b0012c7U, 0x3d6b1a7ebd394af1U, 0x3c479888bca2f759U,
  0xbd86934a3d4e1fe3U, 0xbbf90a4abc8c9aedU, 0xbbef12da3c098b3bU, 0xbdca80273cd30852U,
  0x3b31bc853d70f69aU, 0xbd0e7ab53ac9f92eU, 0x3dd51861bdc2eec5U, 0x3d8d2ec5bdc5109bU,
  0xbd93045cbd9f2b31U, 0x3d0da98cbd467ed8U, 0x3dbccdc73d3425f7U, 0xbd2983ac3d6738dbU,
  0x3c930a0abbf879a4U, 0xbd08279c3c62ffdcU, 0x3c85e0ee3cce57bdU, 0x3b7045be3c9e5944U,
  0xbcf94989bcf019beU, 0xbc502b8ebd9ffa23U, 0xbca5786abddc88f1U, 0xbd1a61323c21a65dU,
  0xbdcfffc1bd823025U, 0x3da96b81bdcb1094U, 0xbb6141c6bd105f77U, 0xbd3f3f8e3c2d9de3U,
  0xbd9c44e53bb739b6U, 0x3d84175c3d35b8ddU, 0x3d064d8b3cf3f04cU, 0xbaf838923dad84f3U,
  0x3d66d82fbc24747aU, 0x3dc84947bda2f9e0U, 0xbaab244a3ba2a9edU, 0x3d2912c33c7ecab2U,
  0x3b49ece83a04719cU, 0x3cb366153c0999c7U, 0xbcdb112c3c8a2e55U, 0xbdaad594bc764e05U,
  0x3d9a4de8bd98cbb0U, 0x3bf28334bd8ecc25U, 0xbdb62d7bbdd6128bU, 0x3b9e4996bd4a390dU,
  0x3d13df4f3d1d32cdU, 0xbd17f43abba398feU, 0xbbba3e603cd34ad5U, 0x3bc15854bdd71bc3U,
  0x3cf98ac2bd6f9763U, 0xbc2253a83d95563fU, 0x3d4fa1863db3a8a4U, 0x3c9bcd2abd40221bU,
  0xbd21b4dbbd9feb74U, 0x3ca3340c3ddc37cbU, 0x3c96644dbdca35e9U, 0x3d9a034fbdcc31c4U,
  0x3c21e2b0bdb4b612U, 0xbc62b760bd0c0c1eU, 0xbd5aa3493b09ef79U, 0x3cfe06db3d5ea021U,
  0xbdb2ab62bc1a6f58U, 0x3d8be1dd3db06996U, 0x3ddc9094bd4c8915U, 0x3daf36a7bcac6d09U,
  0xbc41b0793d4d02f7U, 0xbcd67f5a3d221231U, 0xbc8be8abbdec5d74U, 0xbc7aed39bd79627cU,
  0xbd826d033dd5e23eU, 0xbdd3a96abda4c3f4U, 0x3d99ba533a28dc84U, 0x3dc2149dbdb90968U,
  0xbdc94235bcdf398bU, 0x3c9fac4ebdab40d8U, 0xbcb464913d75845fU, 0xbd15394a3d9d92cdU,
  0x3c1c82743d2986a1U, 0x3dc21b2cbbb6bf8cU, 0x3d0ef6e83c522e31U, 0xbd058f073d9f3bc1U,
  0x3d5c59c73c146eceU, 0x3cccb54ebdad448aU, 0xbd1b2270bdb26813U, 0x3c4b92f83da87f03U,
  0xbd8b12ecbd9df62aU, 0x3d9c4b233ab93a3aU, 0x3dd9c850bd64767eU, 0xbd4c0543bd9f76a2U,
  0xbdbdd344bdacc9e5U, 0x3dc614d63d403f94U, 0x3c8559583dc36c06U, 0x3db0024a3d452fa0U,
  0x3db8e079bcec3c0bU, 0x3da291eabda6d8c4U, 0xbda963683d7c6340U, 0x3d1080d03dc17908U,
  0xb7f140c3bceca7ffU, 0xbdb4bc93bd26e483U, 0xbd90f3e73dc73653U, 0xbb88d643bdb9f901U,
  0x3d55f925bced3d81U, 0x3d76a667bd519500U, 0xbd1d078dbdb93a13U, 0x3cb2fc52bd857c4fU,
  0x3d5a68f83d6d9059U, 0xbc89fb483bbad30aU, 0xbcf25cac3d8f87f7U, 0x3d9d2e00bdc5c4efU,
  0x3da9f0b4bbc7d2c0U, 0xbd31be773d837035U, 0x3d287f0a3ce2b3a2U, 0xbc9fcc8abdad80e0U,
  0xbcefa536bd1d49a4U, 0xbda9294fbb381d71U, 0xbd6e78ffbd212fa1U, 0x3bfe114ebddfa5a7U,
  0x3d68442bbde03ba8U, 0xbd7385933c12d715U, 0xbd2e60833bcc10bcU, 0x3cd2bb3ebd37d48aU,
  0xbd9260403da8e7a9U, 0x3b322012bc7d0079U, 0x3d4c4a5abccac689U, 0x3d621ccfbda46b49U,
  0xbdaa84eb3ceb7755U, 0x3d63bdd9bbd9dac7U, 0xbd30f75fbdcf7ca3U, 0xbd2eb1b0bdbea1aeU,
  0xbd97d0333df0311fU, 0x3bcd38e43b8c84dcU, 0x3ba11440bdc124aaU, 0x3ddeae2ebda6d68cU,
  0xbd860e70bde812d7U, 0xbc0992c4bc4e1154U, 0x3d35f2683d668d11U, 0xbd8a4d4b3d71a231U,
  0xbca027ecbc2c29e8U, 0x3dad868ebdcf220eU, 0x3ce4a2363bc4cd98U, 0x3ab130443c25e299U,
  0x3d7ad6c83dbff2fcU, 0x3cd8dd7dbdc14bffU, 0x3bbaf7d8bd6bf82dU, 0xbda5f9423dc1413eU,
  0xbd86b193bdea2f68U, 0x3c826f0dbded95f1U, 0x3cf89d3b3c92317dU, 0xbc692f09bd9a384cU,
  0x3c538b8ebd5271d9U, 0x3de92c15bd3d245dU, 0xbd709a913dafd7e2U, 0x3da7fe993d1d5d86U,
  0x3c4fdf08bd1e244cU, 0x3d8c5c19bc47e3ceU, 0xbc39f31a3debe2b4U, 0x3d92334c3cfd7dd1U,
  0xb9dcf890bde54ab8U, 0xbd992c3fbc8c4891U, 0x3b9d12203d84295dU, 0xbdb39185bda960a5U,
  0x3dcbbcaabcaf3624U, 0x3c4dccf4bdcc13e2U, 0xbdc0be21bd0967b5U, 0xbd44aa54bc351751U,
  0x3cb94da43ba21284U, 0xbb8b1c383d536c40U, 0x3d1788423a0dccacU, 0x3d9b9fb3bdd7a438U,
  0x3dbd1864bd916a16U, 0xbcf2a2bd3dc3abb2U, 0xbcb3ef983dc2f90fU, 0xbda675a6bdd62cd6U,
  0xbbb20ed3bc5128eeU, 0xbdae24083de20d41U, 0xbc9dd4dfbd807afdU, 0x3d89da35bde269bcU,
  0x3d739ababd2b68faU, 0x3bb02671bdcd622cU, 0x3b936f0dbdbe3195U, 0x3dc8b8f43be98b26U,
  0xbdb4a8883c323861U, 0x3db37eaa3dd70e2bU, 0xbbf0f693bde298e3U, 0x3c7fdd84bd9b28f0U,
  0x3c203d8f3c893e9aU, 0x3d942aae3d88cb31U, 0xbd41c24abbd345e6U, 0xbe051a71bda23638U,
  0xbd1bc2e33d1763a7U, 0xbdd70824bd3cc77bU, 0x3e07840dbe045668U, 0x3def81bcbcbdbdbfU,
  0xbdf02be5bd2d674aU, 0xbd12e4a3bc59a556U, 0x3dba238e3cc5341cU, 0xbd3155ed3e029896U,
  0x3d8f8e4a3d6df195U, 0x3d8f9e6fbd235456U, 0x3d2ddcc6bdd7b17cU, 0xbc3d944f3cf0d7feU,
  0x3de477003df89cbdU, 0xbe1299c8bdc2d8acU, 0xbd895a78bda0b252U, 0xbdcf9edc3d5c2c73U,
  0xbdfbfa5ebe03b2fbU, 0x3d581d61bd841d6bU, 0x3d7ed66bbd925054U, 0xbe074509bdac4e6bU,
  0xbdb435d5bd18f371U, 0x3c2c2fc83e22e6d6U, 0xbe1437583e34a5c8U, 0x3e06d8753e38770fU,
  0x3e03e12abd92ece2U, 0x3e1876c4bc662f82U, 0xbdf823bc3c87ac15U, 0x3ddc19ad3e1cd7f4U,
  0xbe7a7af2bc731e04U, 0xbe146190bdc31a83U, 0xbd8734003e2a7167U, 0xbe604a4abe0e1fd7U,
  0x3e0dd136bdd4c918U, 0x3df1ac8ebde6a0d9U, 0xbe0be0bdbe07008bU, 0xbe4bec5dbdd842baU,
  0x3dd541663e2e1512U, 0xbdf2a8633de9505fU, 0x3e68563c3e3103e2U, 0x3e4903bebdbff082U,
  0x3e746adbbe068c66U, 0xbe460d523e083cadU, 0x3e6be7383d60ffbeU, 0xba098454ba78363aU,
  0xba73ccccba2fc327U, 0xba4b09733a69e778U, 0xba578975b9943a8cU, 0x3a90458fb9e97ee7U,
  0x3a06cfdbba7ea5d9U, 0xb902df88bab12274U, 0xb9fac386b947b659U, 0x3a9749f43924d83eU,
  0xba0392113a72a222U, 0x3a51860339ec0c57U, 0x3ac524c5ba91e6a2U, 0x3a96062bba3b9daaU,
  0xba723fc5b980e100U, 0x3ac67a1e3a2686f8U, 0xba679272bb379dd5U, 0xbb39b5aebaeaa858U,
  0xbb1be8083b0077a6U, 0xbb2ad5f2ba8c5dd8U, 0x3afc005ebb15ba59U, 0x3ac1dac5bb69a5c5U,
  0xba9a6c5ebb7c32d3U, 0xba9a52b9bb7c1e4dU, 0x3ae5a8ed3a665fa8U, 0x391e0cf43bed85f0U,
  0x3b295b263aa6a706U, 0x382de52ebb61f0c0U, 0x3b071f2fba6b81d2U, 0xba63bca63809258fU,
  0x3bf270813afdf761U, 0xbb9359e4bca06264U, 0xbbb50950baaaaa9bU, 0xbc17fe153d0240a5U,
  0x3a523e3bb9f4b764U, 0x3bbc5bccbc7f6b5aU, 0x3c2caba6bc2d6149U, 0xbc392d91bc0a88f8U,
  0xbc64059dbca88720U, 0x3cb543343c327591U, 0xbc680f6d3b356f15U, 0x3bbb69ec3c872d73U,
  0x3c5d7dd8bcb1f25aU, 0x3b5d44adbcfb3bddU, 0xbc20857c3b8fa62cU, 0x3cf0c2fa3cc12101U,
  0xbc8af121bc489354U, 0xbca60380bccb5f77U, 0xbc04f15e3d1d79ddU, 0xbd2cb44bbcb2ec93U,
  0x3ce4df36bc9d85fbU, 0x3c847c7ebcefc862U, 0xbcec9850bc649069U, 0xbccc5b14bafb7791U,
  0x3d25ad6a3b4b489eU, 0xbd0607a53cfd6009U, 0x3ce1bd493bdb8eddU, 0x3cd8e31cbbaff18dU,
  0x3bf1606cbccc6017U, 0xbbcd1fd13c2bd73fU, 0x3c84cb813ce261d9U, 0xbceb9fdcbccac263U,
  0xbd21052dbc9e4634U, 0xbb8b737b3ca7fe95U, 0xba8a9d46bcafe10eU, 0x3d55e23ebd077b79U,
  0x3c7d0f74bd31a354U, 0xbcc86e91bd37464eU, 0xbd15377abd413021U, 0x3d4279113c612682U,
  0xbd51a1c13d1610a6U, 0x3c7f55ef3c94a7e5U, 0x3c344134bd0f78d4U, 0x3d3dd8ffbd1853bfU,
  0xbcb068203d0d3052U, 0x3d2c1e843d2603b1U, 0xbad38bf2bd18db84U, 0xbd66fee8bccb20a6U,
  0xbd44f9883d5a7868U, 0xbc5d2a17bd0011e9U, 0x3ce47927bca30d30U, 0x3d431086bca9d142U,
  0xbd45db7abc372c53U, 0xbd33e746bb96f0f4U, 0x3d25e36b3d249450U, 0xbd37d262bbf6f08aU,
  0x3cb4c4c93ce50ea4U, 0x3d4980dcbc32002dU, 0x3b8239c8bd7abe9eU, 0xbc7db4df3be38c10U,
  0x3cf16ef33c4d3f3eU, 0xbcf18877bc094619U, 0xbcf2d25fbd470ca3U, 0xbd3c93d03d58448fU,
  0xbaac5405bbe8c169U, 0x3b41cfb3bd0df70aU, 0x3c84df05bd4735fdU, 0xbba205aebb1d6014U,
  0xbd38b326bd040c53U, 0x3d78169e3bf4de3fU, 0xbc1c0cc53c935fe5U, 0x3d3255b03c716fbaU,
  0x3cbee48a3bc9a766U, 0x3d490f27bd1af692U, 0xbcaa8e583d6735a8U, 0x3c651fcc3d1e0a9aU,
  0xbcc74609bd167bafU, 0xbd062ddbbbb67c93U, 0x386f01273d6dc36aU, 0xbc483858bd03f6a1U,
  0x3d646c563bf7f272U, 0x3d3799a1bc8c76ebU, 0xbd5d995cbcb0eb66U, 0xbd1037d1bd551b5bU,
  0x3d62542bbbb3aa02U, 0xbd815b873b7f328fU, 0xba94680a3b7cf767U, 0x3d82cdc5bb1f25d3U,
  0x3d12532abd62a895U, 0xbc81badebad38a81U, 0x3d58ab693d51c2b1U, 0xbbab5afc3c123096U,
  0xbcf4403ebd54a45fU, 0xbd5aab823d435a2dU, 0xbd62279cbd6bcbd8U, 0x3ceb22d6bc9bc415U,
  0x3c9d4f85bd0434d6U, 0xba961740bcfdb066U, 0xbcd91867bcf183acU, 0x3d58e417bb6bebfbU,
  0xbd49e243bc1a3d85U, 0x3b95de923bc74c58U, 0x3d3852e9bd4e9860U, 0x3d20ec29bd7ca611U,
  0x3c17a6b23d0a2601U, 0x3c53038fbc9b14a3U, 0xbc89e89abd6d7b35U, 0xbc84c72ebd68bdc5U,
  0xbab7376d3d95d765U, 0xbd6851cf3bfdca13U, 0x3bdaad24bd0d4277U, 0x3d0ac022bd1d425bU,
  0xbc23ae99bd36bd73U, 0x3a58e5fc3c45eb91U, 0x3d5296cdbaa9f3beU, 0x3c4320283cc15839U,
  0xbbee5fec3d05541dU, 0xbbc19479bce08db0U, 0x3d0c9527bd16839eU, 0xbb2684163d5cb363U,
  0x3c520d943d83616dU, 0xbaca6246bd5b448dU, 0xbd431719bd4d223cU, 0x3b50589e3d6e3736U,
  0xbd87ae9cbd573e11U, 0x3b4b54c8bc105bd8U, 0x3c93ffe6bcf47c0aU, 0xbd59409e3b9132caU,
  0xbabda306bd25d81cU, 0xbc6ba59c3ca84f59U, 0xbb1ef8053c2101fcU, 0x3beae5c9bc177f34U,
  0xbb8cbbb3bc4a1527U, 0x3cf74a82bd984c6eU, 0xbcc2f7173d605038U, 0xbcdd35553c32cf98U,
  0xbc80b180bc1de0b5U, 0x3c41dc1abd588158U, 0xbc9f05773c9bc770U, 0xbcb6ba333ab1136bU,
  0x3d849f4c3c2e1157U, 0x39d91be4bcc1387cU, 0xbc68a02ebd4be312U, 0xbc92be8cbce4e274U,
  0x3c2e0a7c3ca06561U, 0xbcc38f76bb9058e5U, 0x3aafb22d3cf7a1a1U, 0x3d6d7bcebce12685U,
  0x3cdf0c26bd962f8aU, 0xbd0816953aca4898U, 0x3d42ff6a3cb9243fU, 0xbca9b518bd7fc54bU,
  0xbd61baa03be980c8U, 0xbd672c873d0d98efU, 0xbca897fd3c10a89fU, 0x3c030d01bd76cf5fU,
  0x3c342a16bd7d409cU, 0xbcdce08dba8d65e9U, 0xbd08c6c1bb5f1f5eU, 0x3d70f22abba686e6U,
  0x3b1885de3cb5826cU, 0xbc2fa7d83d03986cU, 0x3d35a225bca13a01U, 0x3d2b41d3bb99234cU,
  0xbd7896523d4376c3U, 0xbc12f9333d8c3aacU, 0xbca958c1bd60adeeU, 0xbd869ccdbd589031U,
  0x3b9667183cb5c5a0U, 0xbcdd2a3cbcfbfddcU, 0x3cc05ba3bcfeca35U, 0x3d2fde753b29494fU,
  0xbd4dd423bc89b2e1U, 0xbc8d4274bd37e81aU, 0x3d52d9d23c85ac44U, 0xbd27ce033cd0593bU,
  0x3d01e11d3b18926aU, 0xbc50154ebcb6d1b9U, 0x3cf1a0eebcb7d0b6U, 0x3bf324a83d2aaa25U,
  0x3d071c4a3d8364edU, 0x3b649668bd0d8869U, 0xbc8468c7bd3070dfU, 0x3c184ec23d494fd9U,
  0x3c4d3c8dbaa4f497U, 0x3c76edc7bcb448a1U, 0xbbd30386bcccd6eeU, 0xbcfc99e9bc7af24dU,
  0xbc9364053c911978U, 0x3b3b59973cd4176fU, 0x3c6248d33bc6f7a4U, 0x3b16ca87bc78501fU,
  0x3d3253af3c16c219U, 0xbca7d9c73b867356U, 0xbd585e4a3d2e45a6U, 0x3cf55d5abc350811U,
  0xbcbc9f183b979c65U, 0x392c4e11bc8b9084U, 0xbd7fe6f73cbb1dbdU, 0xbbce9baebcd29095U,
  0x3cb0ecdbbd129c90U, 0x3d57b001bd7c0457U, 0xbd5232e0bcdbb977U, 0xbcbcf3e4bcba1850U,
  0xbc73f7eb3bd4a046U, 0xbcaea212ba7c6ac4U, 0xbbb6ba28bc8a1151U, 0x3ca7046e3b3e515bU,
  0x3c85332bbcb73731U, 0xbd5a96d13b793e43U, 0x3d2a394d3af84ca0U, 0x3c0da8aabd332a16U,
  0x3b6de76fbc5d7d01U, 0xbc4111c9bac027b8U, 0xbd388ba5b87efbdbU, 0x3d0a2c35bc801436U,
  0x3d0fc74cba8b4a1eU, 0xbd34b1cfbc10023fU, 0xbaa1ab0c3bedac68U, 0xbc7252cb3cabc0d2U,
  0xbbe9da2dbc15c5a8U, 0x3d0a58253d12a5d1U, 0x3cc43545bce20806U, 0x3d363ed7bc2b0ef4U,
  0xbd019c9c3bc9aed4U, 0xbcd2dc073d8e73ceU, 0x395dc13ebc80861fU, 0xbb0a599cbd1b52d5U,
  0xbb9b4b533d777472U, 0xbc14580db8d25915U, 0x3c9843cab8817005U, 0x3c8036fb3bfe54aaU,
  0xbc5ba678bd2645b9U, 0x3b7b7b19bcda4210U, 0x3d6bed31bc3218b3U, 0x3ca6fb2b3d29756fU,
  0xbba199b73d1cd135U, 0xbc1a03c4bd442cf0U, 0xbc9e8403bd21af64U, 0xbd69d02c3d396d50U,
  0x3d0fb8073d3a57cdU, 0x3a98d914bd8805d2U, 0xbd8bb5f5bc79d77bU, 0xbbe7e61b3c2e9a4dU,
  0x3bce52dd3bc2d3ebU, 0x3c46344ebd88eb83U, 0xbad4854ebd434d4dU, 0xbd15026bbc8ccc41U,
  0x3bc60214bd6f0e6bU, 0x3d016a6f3ca347beU, 0x3c56c5db3d82235aU, 0x3c3c605c3d2785efU,
  0x3cd682293bf1e9c5U, 0x3b46cab4bc767b86U, 0xbd581507bc55b5e0U, 0xbca7f92c3b3feaa6U,
  0x383d1b22bd79aa81U, 0xbcbb5665bd47d7a0U, 0xbd1b15d43d83382dU, 0xbd06ac10bb4f0951U,
  0x3c983c95bd04a992U, 0x3d55827ebc77e01aU, 0xbd01ebe8bd264907U, 0xbc7494ccbcaadc5dU,
  0x3d8f86b7bb6389c4U, 0xbd5c57a8bc984c0eU, 0x3d14f97f3cb51183U, 0x3d6171e8bc985608U,
  0x3c9403c2bc940d9dU, 0xbce586ab3d133a58U, 0x3d3bb022bc3863d7U, 0xbbfa7521bd675b92U,
  0xbcefee54bd4bdeeaU, 0xbc93b3323cb2dc07U, 0xbd51cf79bd012420U, 0x3d5c88d0bd29eed8U,
  0x3d31cc32bcf71883U, 0xbc91d78bbcc04ef2U, 0xbc93d417bcf91da5U, 0x3d84242b3c9eaf9bU,
  0x3c4a65f53d1e25bdU, 0xbbc9096c3d13c709U, 0xbb659a76bd7a29d6U, 0x3d5bdda5bc9f0ffeU,
  0xbcdef9cc3d1556f6U, 0x3d77ce4b3d70d791U, 0xbbadd66c3bef6d2eU, 0x3c35f419bb9eb877U,
  0xbd42fc043cdb1f7bU, 0x3c0f92b8bd349d8fU, 0x3d1565b4bacc1731U, 0x3d061d9dbd6686ceU,
  0xbd032689bcc2ed82U, 0xbc61b6a43c330b68U, 0x370349fd3d045984U, 0xbc3c889a3b4d2b71U,
  0xbaa049a43d290754U, 0x3d390de1bd82fb39U, 0xba8af5ed3c8ef72eU, 0xbce410793bbfa74cU,
  0x3d6af6a03d413c01U, 0xbcde179fbd30e765U, 0xbd912437bd10dc6eU, 0xbd10abba3d312eabU,
  0xbcb726c83bc0d190U, 0x3d8ba943bd1bd75cU, 0x3cbca443bc2f57ccU, 0xbd73866ebd654cfaU,
  0xbc9d9ea6bd8f44bcU, 0x3d79e5c33c9ba86aU, 0xbce455aa3c081cf9U, 0x3d41d3763c349391U,
  0x3c9a2625bce383f5U, 0x3d50af80bd62818dU, 0xbc55e9913c78c096U, 0x3d2ec5923c87d453U,
  0xbcc7b12fbd1c1d66U, 0xbd774dfdbd54fa25U, 0xbc5b503b3c371655U, 0x3b4d40e2bd7008c1U,
  0x3d3277febd7cee30U, 0x3cbc592ebcff13f7U, 0xbcf1f3cabc00112fU, 0xbb5d88d1bd620de4U,
  0x3bd01d773d29305dU, 0xbd09aa69bb938d9aU, 0x3d199bb93a85654fU, 0xbc4c0f6a39cf1821U,
  0x3b4f1439bd67c1b4U, 0xbd8a296d3c68ed7dU, 0x3a84cfe5bc8ebb95U, 0xbbc3e144bd988b11U,
  0xbd080fd6bcb17f86U, 0xbd376bb1bc292d22U, 0xbd207428bd5d3050U, 0x3d883530bd020fc8U,
  0x3cfd0580bd0f687eU, 0xbd5de74bbd4da662U, 0xbd50f316bc2b547cU, 0x3baa3f803c848566U,
  0x3b9569b53d948c32U, 0x3cc3ed1bbb9ed004U, 0x3d11bbf7bd3c2a2cU, 0x3ce2edfcbcb8c7caU,
  0xbd3731583d74a211U, 0xbc386a7d3ca25e4fU, 0xbc226af4bd80a7ffU, 0xbd6f746fbad677c6U,
  0xbd6b59ff3cf14430U, 0xbbdfd6c6bd89805aU, 0x3ba79db7bc43d375U, 0x3d70e0fa3aa77538U,
  0xbd0c9f07bd5d547eU, 0xbd2890fcbd95511aU, 0x3ce83b1e3d24d49aU, 0xbcf504e63d0dac4aU,
  0x3cc63cbe3d59f3e5U, 0x3cc3dfe5bd2d590cU, 0xbb844cc5bced4659U, 0xbd190bd03c99e652U,
  0x3d9121ca3d774cffU, 0xbc8bdc35bd1597e7U, 0xbd3f2e55bd5490d8U, 0xbbeac4773cc05dc3U,
  0xbd0a82a2bbf7db87U, 0x3cb198debd82661eU, 0x3d408636bc68976aU, 0xbcffbaa6bc752c4dU,
  0xbd520859bd22a3b3U, 0x3d96e9703ce174c8U, 0xbd46b4e63b625873U, 0x3d1c80993cace9f6U,
  0x3d07b377bd8649f8U, 0x3ca56cbdbd8e3b48U, 0xbb0509263c3bd8a8U, 0x3d52c5a33c6c07baU,
  0xbcdb00f4bd94075cU, 0xbd911cedbd84200fU, 0xbda03b4e3d77bb95U, 0xbd7c638fbd93a913U,
  0x3b7d2915bda227c5U, 0x3d642271bcfd945eU, 0xbcb6295bbc75e621U, 0xbd2791fabd608c7aU,
  0x3b5851d33d308d56U, 0xbd8d22a93d99bb70U, 0x3bb525153d1cba26U, 0x3d8a8471bc211171U,
  0x3d1de1b0bd3f7837U, 0xb98e77683d95a32fU, 0x3d80f97c3d2480baU, 0xbd38e8edbc96d65dU,
  0xbd2946cfbc3b3efeU, 0xbcae10fe3cab3a22U, 0xbd9a102abd8752f4U, 0x3b531db6baf6c525U,
  0x3d559104b9a37754U, 0xbd89a99ebd48f63aU, 0xbd4ce90cbc23b025U, 0x3d46e74e3d5acf7dU,
  0xbbe682ab3bf93896U, 0x3c12bd0e3d159c93U, 0x3da2992cbbaf996cU, 0x3da16659baf15cecU,
  0xbd852ccc3d30ecf1U, 0x3c5adc763daccc53U, 0xbd2614bf3a5fb2ceU, 0xbd9d1cc2bc67e657U,
  0xbd2949bc3d8c7291U, 0xbdadba77bd821a22U, 0x3d9cf3d5bbda9b53U, 0x3d667c82bc6917feU,
  0xbd59c71cbd69f987U, 0xbd2158d8bc76dcc1U, 0x3d1bb62e3d296877U, 0xbd647b073dccc685U,
  0x3d4835823daee38aU, 0x3da840efbd72d83eU, 0x3d12ac50bb95839bU, 0xbc84c5063b80930eU,
  0x3dcd66153db38fc5U, 0x39c94fd5b9815b7dU, 0xb9852961b7bcbf7dU, 0xb8ea077b36660a52U,
  0x3966b46d3936be4cU, 0x39ab2e6a38155393U, 0x39222828b9816c39U, 0x398f83c3b95f63fcU,
  0x39a2626439adb61aU, 0x39be627aba1b8cb3U, 0x39ee968db95dd28eU, 0xb90e04b3ba3d0a8bU,
  0x373b7730b94a84ffU, 0xb9e26b0db81f5a32U, 0x3951fc86b95e2a7eU, 0xb94ff148b9c292faU,
  0x3a8ba21aba0984f7U, 0xba066f6f392ecf12U, 0xb90edac4b8b3ea72U, 0x3a4fe4b43a240d03U,
  0x3a109cd839adda6fU, 0x3949ed17ba0d8a70U, 0x3a7322f3b9cd20c6U, 0x3a620fe53a6c8b39U,
  0x3a38e797badbfa02U, 0x3ab740aaba18d617U, 0xb9f5b10fbafcb7f5U, 0xb879ce7db9a10ba3U,
  0xbaa3234c388e278dU, 0x3a2912a1ba37da29U, 0xba1db707ba975531U, 0x3afbbb80ba617496U,
  0xba45146e3a225685U, 0xb8f73a1db99b58dfU, 0x3ad11ea53aa74fb5U, 0x3a2db4ff3a57d4c9U,
  0x3779bb09ba6fef1aU, 0x3ae8a0eeba0de4e1U, 0x3acd8cd73ace0ac2U, 0x3a785ea3bb3c6097U,
  0x3b2ee057ba405269U, 0xba58cf31bb54545dU, 0xb942d6dcb9be6e07U, 0xbb2dba6038cad44dU,
  0x3aa67f7ebabf48c7U, 0xba85b7e3bb20cf57U, 0x3b3340fcbabef0c7U, 0xba86393c3a80944cU,
  0xb954bdbfba4ca185U, 0x3b1aad183adb53d2U, 0x3a55c5e73aa7117fU, 0xb94a52d4bad412d9U,
  0x3b1a98b4ba74010fU, 0x3b13c6823b16874eU, 0x3aa39b2dbb7e0806U, 0x3b80f5aeba12a303U,
  0xba800b9ebb8e85f8U, 0xba220f5aba14a941U, 0xbbb79cc83ac07cc8U, 0x3abb82d4bb078c89U,
  0xbaa6f985bbeb4870U, 0x3b5d1f44bb18e1d4U, 0xbabc45693a7a2b42U, 0xba258c6cbae78ae6U,
  0x3b6742e63ad9dccaU, 0x3a890b1b3ad892a3U, 0xb938e38bbb2ec5e1U, 0x3b189eaebaba73afU,
  0x3b2ddf7b3b3fc05fU, 0x3ade59d3bb91f688U, 0x3ba5758db9887459U, 0xba2e9bfabbaa4b0fU,
  0xbb1fe60eba58a4c9U, 0xbb9a8b6a3a79b4b0U, 0x3b8fbe3fbb1e5fc5U, 0xbb0e91efbc0c299eU,
  0x3b72bddabb57c7a3U, 0xbac1322f3a239345U, 0xbab0e35c38766794U, 0x3ab43ed23abebdeaU,
  0x3a690c933ae54c30U, 0x38d9269fbb76cf12U, 0x3afc3d6bb96e66a9U, 0x3b4de74b3b5ada72U,
  0x3b1486cdbb96993bU, 0x3bc39d84396a9f28U, 0x394a3e5cbbb75517U, 0xba3cba34bad59e86U,
  0xbbba6fbd3becc902U, 0x3b4b24b0bb24598eU, 0x3a83f5ebbc2dd93eU, 0x3b831bb1bb863c6bU,
  0xbab832da397d2db1U, 0xbb07fe313b8b807bU, 0x3afcc0773ab1a0e7U, 0x3ace362e3b1ba888U,
  0x39f38e26bb92b671U, 0x3ad0785ebb4f8089U, 0x3b4925f03b7955a1U, 0x3b34788bbb9702faU,
  0x3be1cab23a6293f4U, 0x3a95ac99bbbe60b1U, 0xbb75f6d9ba940488U, 0xbbd56f9cbc0ae13dU,
  0x3b8a1395bb2911dbU, 0xbb8c144abc3af32bU, 0x3b8c6abdbb95cb63U, 0xbaa437c9b8933ef7U,
  0xbb31911eba8f0a51U, 0x3bb3cd5b3aac5722U, 0x3a17008e3aaf6d5dU, 0x3a986d0abb9bbe32U,
  0x3aa80a05b8e264aeU, 0x3b57cb333b814036U, 0x3b4ce072bb94f071U, 0x3bfca7263acb732dU,
  0x3b00fc7ebbc135e6U, 0x3b0bcd9fbb5b6e7bU, 0xbbb792983bbb9d23U, 0x3ba5e887bb2be43cU,
  0x3af6172cbb7fd21bU, 0x3b91fb3bbb990cf6U, 0xbb9aa977b9b6bc56U, 0xbb52ab9abbed72e7U,
  0x3bd70a2a3a9f8087U, 0xb910fc283b0065e4U, 0x3ac007a1bb9b7c62U, 0x3a899d26bb56c95bU,
  0x3b2aa2f03b8dd5ecU, 0x3b609cc9bb8c8e1cU, 0x3c061cec3b1a4b17U, 0x3b2c0223bbbea2baU,
  0x3afeeb36bb2e4b92U, 0xbc1d616abbd0a167U, 0x3bc12363bb254a62U, 0x3ba6845ebaad42d4U,
  0x3b946e84bb96dad4U, 0xbadcba24ba177922U, 0xbb6bb8c3bb4000beU, 0x3bcf9d3c3a83cd7eU,
  0x3b92bd323b10aa9bU, 0x3abc24afbb97ad14U, 0x3a33e8fabab90597U, 0x3b40b5c33b711faeU,
  0x3b73b129bb86f0f2U, 0x3c06baa03b511a66U, 0x3b3465cdbbbc7ba1U, 0xbbd34485bb842523U,
  0x3a8f6e7e3c52849cU, 0x3b1bac7abb0b0169U, 0x3bc2323e3bc5de38U, 0x3b99fe01bb8e8202U,
  0xbbb54a58ba16cf32U, 0xbb793635bc14242aU, 0x3c6493b13a76ca07U, 0x3af035d83b504b52U,
  0x3b008b2fbb94499cU, 0x396ded88bbc114f0U, 0x3b63bff23b43e2d5U, 0x3b7cc191bb6dd872U,
  0x3c033a303b541df1U, 0x3b10b1a6bbbd5f63U, 0x3b944350bbd5b061U, 0xbba6459bbc4e5589U,
  0xbc025ab9bad56319U, 0x3c223f94bb053c23U, 0x3b9ea727bb856758U, 0xbbd3a5bfb98cb5f4U,
  0xbb7965c83befa944U, 0x3c6bf77d399ff4f5U, 0xb89890a8b983abedU, 0x3b29e388bb8d54cfU,
  0xb993aa39bae032faU, 0x3b4ce3b43b4e7ef9U, 0x3b7a2cfebb469f6aU, 0x3bfb860c3b67fb20U,
  0x3ad0e163bbc0af33U, 0x3b6f0663ba32d1b5U, 0xbc515e103c0250e5U, 0x3b91ae15bb082545U,
  0x3c46c3c93be007ffU, 0x3b9ed9f8bb76750aU, 0xbb8444f338e523c7U, 0xbb6cde2cbbc0dd63U,
  0x3c0bb0e53902058aU, 0x3b01ecc33ac30b09U, 0x3b27dbebbb80ccf5U, 0xba6652d4ba342719U,
  0x3af67dba3bc19e8cU, 0x3b72e3a3bb69fc7eU, 0x3bebdbb63b385e2aU, 0x3a64a1b1bbc199afU,
  0x3aff84923ac0523aU, 0xbc42adbabc8e8896U, 0x3bc58c4bbaba2085U, 0xbc0517d53b927fd1U,
  0x3b9b3db3bb5ca809U, 0xbb850c7439d81777U, 0xbb57b64cbb2d2807U, 0x3a3b1c4739841007U,
  0xbb64d73e3b0d70f4U, 0xbad0e699bb76bbacU, 0xbabef917bb2116ffU, 0x3ba1bf853b80d445U,
  0x3b664668bb7f10b1U, 0x3bd8ed7e3aa04df2U, 0x391c93febbc5c56fU, 0x3b1691e7bb804ac0U,
  0xbc4263bcbc5f31c0U, 0x3bf36b47ba8c530aU, 0x3c25a6843bbd658fU, 0x3b95f289bb4bd6b8U,
  0xbbcdcf5b3a11684aU, 0xbb3cea0e3c1c9b97U, 0x3c60def73aa470c1U, 0xb9375c6f3b1d7a86U,
  0xba11adbbbb654405U, 0xbaffdf49baf06175U, 0x3bb305113bd1aafcU, 0x3b542673bb4062a0U,
  0x3bc467fe3adfadc5U, 0xba0fae3fbbd28fdcU, 0x3b87af223b3c6a6aU, 0xbc830870bc1f00a3U,
  0xbbb4e30fba5666caU, 0xbbc0d56b3c20dc67U, 0x3b9070d7bb129fedU, 0xbb8702ae3a32854eU,
  0xbb1be2a83c23a324U, 0x3ac24d203ad47dcbU, 0x3b9b798d3b7e9de6U, 0xbb1e7184bb3f4dbcU,
  0xbb0a67d739b41e2dU, 0x3bb15af73bc9dd4aU, 0x3b3ef058ba7d695eU, 0x3bb360b1bac0b735U,
  0xba9f886fbbc56560U, 0xbbdc4684bbab5dc6U, 0xbbcb01613c8d6a2fU, 0xbb45be33bae943a4U,
  0x3bff736fbbfb32b4U, 0x3b8afe19bb0d6679U, 0x3a1bd2973a507e06U, 0xbaf1258abc5a8b08U,
  0x3b8c0d103b060f03U, 0xbb35014e3bb6943aU, 0xbb290576bb34eca1U, 0xbb11e78a3acc4759U,
  0x3bb5f6363b8ef731U, 0x3b2bf75bbb17e641U, 0x3ba63f27bb36de30U, 0xbb05eeefbbbec583U,
  0x3c67ce2f3b2958e5U, 0xbc088f8d3cd8f6d3U, 0xbbf55a99bb3c0e9dU, 0xbc6731b3bc3265f7U,
  0x3b8605aeba9e47a8U, 0x3ad4aeb43a77bca9U, 0xbaa81807bb37cb5cU, 0x3be21beb3b28de9eU,
  0x3aa826eb3b97b05dU, 0xbb702896ba69f598U, 0xbb15a0e63b04a8faU, 0x3b2300b03bbf3574U,
  0x3b18c4ebba85a6ecU, 0x3b9d625fbb912508U, 0xbb1975d3bbb450f0U, 0xbbd965473bc2861eU,
  0xbc19baeabc3afe8eU, 0xbb06d9bcbb007df4U, 0xbc8735a53ba21db7U, 0x3b8322b0ba5f5c7bU,
  0x3985d7863a913379U, 0xba3deb993c1b03d6U, 0x3be5f3843b31eb8fU, 0xbb700b4a3b4bc5e7U,
  0x3b4fdcdcba7c4cb5U, 0xbb0aef7c3ac2dc61U, 0x3a85e90f3bf680ebU, 0x3b041962b9bf8edbU,
  0x3b94d975bba3e3a3U, 0xbb307b8fbba39a64U, 0x3b5df3803bc33578U, 0xbc1aa5723cd52e5cU,
  0x3bd95123bb8a526cU, 0xbc7d4391bc392f21U, 0x3b7e5600b6aeb2beU, 0xbb403ec13aaa9df0U,
  0xb8ad446bbb032be8U, 0xbac17ad13b412e0cU, 0xbb88f8103be05a81U, 0xbb283fdeb99b3adeU,
  0xbaefc0703ac6838aU, 0x3b6d927f3b9f2550U, 0x3adec8f9bb3c5926U, 0x3b8bfafcbbd99971U,
  0xbb40b856bba136adU, 0x3bf992223b8b80b9U, 0x3ac496883cd79659U, 0xbb1bd6f8bb484db6U,
  0x3c0fc4e7bb1699ceU, 0x3b793f043a3186b9U, 0xbaad5bbb3ac139e5U, 0x3a19e6673b0fc91aU,
  0x3b95d6e43b57eb9eU, 0xbb0d5eb73ba21570U, 0x39852c393b082949U, 0xbac9145c3b880a86U,
  0x3b006b113b3e1a16U, 0x3aaf841cbad258a6U, 0x3b81a3adbc053b09U, 0xbb53612cbba80be1U,
  0xbb98d2cd3c0585d5U, 0x3b8791e5bc6fc65aU, 0x3c8356f4baf2e42dU, 0xbbdd934a3c073a0dU,
  0x3b74c5483b0122d4U, 0x3a0a84323ad7f48eU, 0x3ab337893b1a0d46U, 0x3c4c22ad3b669684U,
  0xba09e4493b990022U, 0x3a4605053b44bfffU, 0xba9a18113b98ce25U, 0x3bea7ea93b22f639U,
  0x3a6835abbb1a4141U, 0x3b6f0e37bc10c529U, 0xbb96efacbb95b5a5U, 0x3bdf3f943c1d5d17U,
  0x39ea318d3ce1fd31U, 0x3ac8e19fbb6920ebU, 0xbabc53443baf4d43U, 0x3b6ee9b83a24d50bU,
  0x3b61d8f03aefe30dU, 0x3b0cd52d3b657e5cU, 0x3c0fd6683b776638U, 0xbb349f4e3b45ab52U,
  0xbbc85e803b4caa4bU, 0xba4740bb3b8e1f2bU, 0xba039cea3b3a129dU, 0x39e861fbbb5076feU,
  0x3b58c1f8bc26889dU, 0xbb73a987bb8724f7U, 0xbc8b87ce3c011af0U, 0xbc681b1f3d0433faU,
  0x3cbf2db3bb80dcc4U, 0xbc48d3983c5e11efU, 0x3b6981dd3b85e3beU, 0x3a5b70383b041b75U,
  0x3b47eeddbcbb463aU, 0x3c10da303b818271U, 0xbac67ec83b75dd30U, 0xbb8305183ba8f713U,
  0xb9aa15a53be7d757U, 0xb92873f13b6c677aU, 0xb81f0a42bb8f5a5bU, 0x3b3e70f7bc130759U,
  0xbb8b6c3dbb4446cbU, 0x3b88870b3b4afed3U, 0xbbf04314bc46ee0bU, 0x3b4ee60dbb68cf8bU,
  0xbcad33c1bc8a7b6cU, 0x3b63e79c3b36b542U, 0x3bcb444c3b0ebcdeU, 0x3b82028fb9e01925U,
  0x3c0ba5023b8410c3U, 0xbbb9723b3be81f2fU, 0xbc16a6263b8f86e8U, 0xb7838af83bdcef1fU,
  0xb88552ee3b9bd3a7U, 0xba183951bba582e3U, 0x3b2642c1bc4296a7U, 0xbb92b122bb16504aU,
  0xbc8bd2073c09051eU, 0xbb3294f33d0f641fU, 0xbb5b8440ba4a9438U, 0xb98c076bbc9ecc77U,
  0x3b5ef7d53b8a13b3U, 0x3bcffa3d3b1a9ad3U, 0x3ba3af9dbb1e524bU, 0x3b2336bf3ba13953U,
  0xbb6accdb3be31a8dU, 0xbb9cda143bbdbf65U, 0x39b3a51a3c111bd9U, 0x3b97cb8a3addc32aU,
  0xbaaa053fbb4a5c91U, 0x3b0b591bbc52f743U, 0xbbad3f45bac9b5f5U, 0x3b9906f73c351cecU,
  0xbbb8b9be3bd319c6U, 0xbb1e10a9bb118837U, 0xbc99d525bc461de0U, 0x3b5a4e163be90caeU,
  0x3bac70e43b25598cU, 0x3bc4ca38bc9be8ceU, 0x3a350d373b9d0ad1U, 0xbbeece033bb21ac0U,
  0xbb7b9ece3c0c95cbU, 0x3a2245483c1fa133U, 0x394345633b2745c3U, 0xbaf904fbbb9a1222U,
  0x3ad79ceebc692287U, 0xbba7d694baaf1a45U, 0x3c496e323c77dd49U, 0x3a8062c03c205688U,
  0x3cb2543aba4172f2U, 0xbcd9d284bc22d5a5U, 0x3b5632f23c038cf2U, 0x3be454fc3b320f64U,
  0x3be7626abc993372U, 0xbb0fd1e83b90e724U, 0xbbbcb9823b93eb77U, 0xbc057d643bf960ccU,
  0x3a5857fb3c24e45aU, 0x3ba2113d3aa821beU, 0xbb2a75b4bb239507U, 0x3aa53f8bbc4b92d5U,
  0xbbbc79b4ba442c10U, 0xbc042c7e3c227317U, 0xbc13149fbb21a6aaU, 0x3c951015bafd3e45U,
  0xbcce8e43bc854364U, 0x3b52cd943c1debecU, 0x3bbc43e43b3fa111U, 0x3c03fc16bbfe082fU,
  0x3ba4828f3b7f9344U, 0xbba4cf783b60d6d4U, 0xbab367d53c40fb59U, 0x3a776f3e3c652836U,
  0x3b011771b9805f55U, 0xbb604c89bb18f5f5U, 0x3a5db20fbc88597fU, 0xbba22968b989d644U,
  0x3c00a0033c41ccefU, 0xbc1ed81f3c9f14a4U, 0xbb8d1550bac2c2d9U, 0x39288ae0bbc9f4a6U,
  0x3b4e951a3c37b45aU, 0x3c1dcc3e3b4d71d1U, 0x3c143bd5bc8bd862U, 0x39d306483b8af5adU,
  0xbbc3adf93bf307dfU, 0xbbaadb753c1427d9U, 0x3a7b0be03c5c02f1U, 0x3b3418a83b3dd150U,
  0xbb8a735bbb42605bU, 0x39c47b9cbc804215U, 0xbbd9328f399fe719U, 0x3a8a9f763c0a8d29U,
  0x3b7b230a3cd46b41U, 0x3cbd6c04bb0655d0U, 0xbcdcd553bc6c557aU, 0x3807b642b7d80bd4U,
  0xb80c4d45b7042b26U, 0xb7716624b524b250U, 0x37bff6d53734bd87U, 0x3815663635cf79e1U,
  0x37a8232ab7d7f9d0U, 0x37878badb7c0e8beU, 0x37ad05f437c25237U, 0x3823316db8677525U,
  0x3835f202b7227010U, 0xb71610bab88b0105U, 0x3703c090b7c21e7eU, 0xb829036ab66f4d20U,
  0x37a14145b744a053U, 0xb77d972bb81fb974U, 0x38de08dcb859a4c1U, 0xb87bf05f36a2f209U,
  0xb77fabedb7be1766U, 0x38c4591b3868f3bdU, 0x386f523838166e5fU, 0x37efe4cfb86c2482U,
  0x3897cf51b825aeafU, 0x38b3c8a238b771faU, 0x38973efcb93269adU, 0x3918f50db838142eU,
  0xb849853eb94804bbU, 0xb5cfdc55b80613edU, 0xb9083a6b3738b02eU, 0x3895c99ab84202d2U,
  0xb889edfcb90571bdU, 0x3952b53bb897d4adU, 0xb89c630f3821551bU, 0xb6f699b2b88d8041U,
  0x39516b083909fa26U, 0x385ea71a38d2dac0U, 0x36b0ce40b8920762U, 0x3922edc0b82de2c7U,
  0x393c6c3e3937ff74U, 0x389eddc0b9a3dbf3U, 0x39a16f6ab8b969d2U, 0xb8d75af1b9b80fe1U,
  0xb85555f6b7afd057U, 0xb98970b438477683U, 0x390e4105b8f166e0U, 0xb8ffe529b986d99dU,
  0x39a2c199b87880deU, 0xb80408bc38bcf502U, 0x36fe9ce1b91285edU, 0x399cba12396287a2U,
  0x37a2066c39385e2aU, 0xb862d580b8709526U, 0x3981cb6eb71f12b0U, 0x3996277139946fffU,
  0x38859b6db9ec3867U, 0x39f8304ab907d92bU, 0xb901cd5aba07cd0dU, 0xb8b9fcda3704fcd4U,
  0xb9e2d5d438d72ff5U, 0x3949ad5cb9658706U, 0xb932788bb9c77de1U, 0x39cee0d5b8738767U,
  0xb54d616d39223795U, 0x381e2113b930a522U, 0x39d15b813988ed29U, 0xb7c4bccb397f0d60U,
  0xb8d7f478b88c796fU, 0x399f58dab707479fU, 0x39afe1f839d3d560U, 0x382cd983ba11806bU,
  0x3a2ae141b947c43cU, 0xb8bd7f7bba2b7171U, 0xb90c6ae4379df62fU, 0xba189e1138e7fb44U,
  0x396ce825b99b1e52U, 0xb940ae29b9f764d3U, 0x39ea0076b89b5bfaU, 0x378be44d39367718U,
  0x36d37b07b958be77U, 0x39f8df68398f32d1U, 0xb71e275a39881a6bU, 0xb8d3d5d8b8a017d5U,
  0x39ad068436903be9U, 0x39b6882e39f0419eU, 0x37de1297ba19535eU, 0x3a49fb8fb9242806U,
  0x374d84c1ba416879U, 0xb8d4bf2337a7a797U, 0xba35963038b89159U, 0x39693f33b9c48670U,
  0xb90033f5ba09f94eU, 0x3a017460b8b10d1eU, 0x37e8daad3934d539U, 0xb7b641b9b9029a64U,
  0x3a0d516a398d7b34U, 0xb68d135c398fed04U, 0xb8b98dc4b8f7499aU, 0x39ad9589b684958cU,
  0x39a25b8a3a014d61U, 0x38563f75ba1deda9U, 0x3a704946b906846fU, 0x388ed62eba4ae7a0U,
  0x3865782238065faaU, 0xba46cd5438bce46bU, 0x394f2c2db9ca6c54U, 0xb7a5eca6ba15e0f4U,
  0x3a04bd17b8b69531U, 0x35cdc2ac3928309aU, 0xb88d060fb8abbf30U, 0x3a19efff398903e4U,
  0x36e44f2539984d11U, 0xb8940223b8fe75d3U, 0x39b05236b88b3da1U, 0x3991ddd73a025a0dU,
  0x388a138aba135c6fU, 0x3a84e29db84241a8U, 0x390faf47ba61613fU, 0x3907cb0cb79fa3c6U,
  0xba48527f38360de2U, 0x3927cdeab9c3ac94U, 0x384a003eba19217bU, 0x3a0fbba1b898383aU,
  0xb67c39de390a56c8U, 0xb8d92ad6b80e7453U, 0x3a27c8f33982ad2cU, 0x37b68f3839a16b53U,
  0xb7c24228b8f2dd57U, 0x39b48682b90ba8e6U, 0x3989f36339fd0dddU, 0x38a475c5ba145e69U,
  0x3a8c8c4237b8eb8cU, 0x391974f3ba6701b3U, 0x3871d31db871a9e2U, 0xba3fe4b8b64d7311U,
  0x38ee1206b9b4e104U, 0x38e83505ba14d3d5U, 0x3a18067fb87f45feU, 0xb634130038dc8844U,
  0xb8f87851b7edce72U, 0x3a2f640b396dab97U, 0x37c75dae399ba98dU, 0x3786d6e2b8b76542U,
  0x39a6543ab929898cU, 0x399096e939f0b96eU, 0x38c12eceb9ea6dc7U, 0x3a8f74ff38cbfcbeU,
  0x3928fc7dba7554f2U, 0xb8e2becdb89e7e56U, 0xba5a03a9b7b38653U, 0x3852fd15b98fdf11U,
  0x390c08f1ba093370U, 0x3a204907b7f09cafU, 0xb7c9906838db15d3U, 0xb9077af1b7bf36caU,
  0x3a35c5433944a996U, 0x383946b2399cac65U, 0x38084676b88079c1U, 0x39a1bc49b909f8bbU,
  0x39d902d63a08a597U, 0x38b6fc56b9c6459fU, 0x3a922414b762a8dcU, 0x39236014ba88fbf1U,
  0xb9e846ffb8a665a1U, 0xba7f5c0037806e50U, 0x3897e654b97ae735U, 0x38838f7fba0e8a5fU,
  0x3a29f105371cae8fU, 0xb77fd81739316d71U, 0xb8f17402b8b9ee79U, 0x3a3d4d77394c700cU,
  0x37e5484839a0a86cU, 0x384d6c4db7ade1e2U, 0x3984c755b854b1ffU, 0x39d4d0e73a2c07d0U,
  0x38922889b9a8a13dU, 0x3a9414f1b8be85acU, 0x38e70168ba91f07fU, 0xba000618b822920aU,
  0xba803812380472f9U, 0x38e2cc91b94c6a9fU, 0xb7d6c4d9ba344dbfU, 0x3a2ac44b3892a1d5U,
  0x37da6c38395ab9e6U, 0xb89d41e2b920eff8U, 0x3a461d8d39572b3bU, 0xb622608539ab6513U,
  0x3827745c381a48eaU, 0x3951ed50387f10eaU, 0x39f3716a3a4c9f11U, 0x38394e30b9825a3cU,
  0x3a971809b9851dcbU, 0x38997d6cba961a67U, 0xba2a81d9b7df0794U, 0xba82c28f392263f2U,
  0x38a6d484b96be89fU, 0xb8e6f64aba55d95fU, 0x3a242e0a38f88e71U, 0x382dc9983990ae58U,
  0xb70cb708b95d4294U, 0x3a3d29bb39890312U, 0xb7fc2ff239cb1bb7U, 0x357b9c6c38d904c1U,
  0x3935fe61394e003dU, 0x3a0785933a61e76cU, 0x3777bab3b9416f93U, 0x3a8b839db9cc4937U,
  0x379d7e34ba94b84eU, 0xba3cf0f2379776a4U, 0xba81881c395d64b9U, 0x3915212cb998ecfcU,
  0xb912a6a2ba6fb0c8U, 0x3a1b863a3931867dU, 0x388fa18e39b80656U, 0x37a19afab9a320a3U,
  0x3a34e95839aeb8d9U, 0xb879fb1639cddd94U, 0xb890d785390da3a7U, 0x38f44e33397fc72cU,
  0x3a1a40f33a7318a7U, 0xb80c6225b913f719U, 0x3a80ac8bb9ee77c2U, 0xb822c4d1ba8f95e2U,
  0xba505f693876d1e1U, 0xba75ed24395de331U, 0x3970857db99c478eU, 0xb93203f5ba7efb99U,
  0x3a13f26b39458b73U, 0x38c2920b39b8331fU, 0x389abd36b9dba3d1U, 0x3a2bda0e39dfe6aeU,
  0xb8bce16139e106a7U, 0xb7f1e1b8393ca383U, 0x38f0df2f399c0bb0U, 0x3a0e44513a84caafU,
  0xb81389dfb91aaac3U, 0x3a6dbe35ba0c30ccU, 0xb8ca57e3ba8c93ceU, 0xba47d44038e9fa6dU,
  0xba6007c9398da696U, 0x398c398db9b59980U, 0xb981ae8eba753855U, 0x3a05051539641683U,
  0x38f33b8039bdf311U, 0x38fd8612ba0db8e1U, 0x3a1a6d3639f60da4U, 0xb9003d5b3a004ee2U,
  0xb892f0cb3966ac5eU, 0x38d09f3d39ccecafU, 0x3a10e73f3a80c77eU, 0xb8ab9122b9073741U,
  0x3a648bf7ba342afaU, 0xb91256dcba885adeU, 0xba4b4d57391738bbU, 0xba58b58239ace0caU,
  0x39bde7b1b9cdf84aU, 0xb98ecb10ba72d6f9U, 0x3a088792397ad03dU, 0x3922ff8739d12de4U,
  0x392847e4ba28520bU, 0x3a10b3163a09a2aaU, 0xb90bf17d3a025cd4U, 0xb91d548c397fe9bfU,
  0x38f5a02039e5af25U, 0x3a0ec8273a813464U, 0xb8cb99f7b8df389dU, 0x3a605bc9ba3a76a7U,
  0xb931e71bba868369U, 0xba50adda39416b54U, 0xba572a3239d58b21U, 0x39e06513b9d81f0fU,
  0xb99ca987ba7416d0U, 0x3a014385398b4cceU, 0x3936b8ed39c7678cU, 0x397a3d21ba21efdcU,
  0x3a094f9a3a15b4feU, 0xb940b95d3a0233dfU, 0xb92e78793996b3d4U, 0x39295b1b3a18649aU,
  0x3a0cc4b53a81b446U, 0xb90d0dfeb8a1b485U, 0x3a60733fba5c45e3U, 0xb95d50abba8709beU,
  0xba638af83971498bU, 0xba51e33b39e668adU, 0x39f4d861b9e064f5U, 0xb9b2ee18ba79f683U,
  0x39f293b339ae79b2U, 0x3985315d39d19285U, 0x399300f9ba36bc3eU, 0x39ff9cb33a1ae639U,
  0xb95f6dab3a0821a8U, 0xb908a17739a376e0U, 0x3945565a3a1acd5fU, 0x3a13de683a8138b4U,
  0xb917c5f5b915e2f8U, 0x3a501fbfba6d636eU, 0xb984184dba89ff5fU, 0xba7d4c363993943eU,
  0xba509a8d3a063328U, 0x3a136c55b9e99da8U, 0xb9d55748ba7e9f9bU, 0x39f6184939b5bb02U,
  0x3988eadf39dd08c4U, 0x39ab7a75ba4df2adU, 0x39f870913a2fc672U, 0xb9878e993a0edac6U,
  0xb92de04039b39e02U, 0x397ae0043a34aeddU, 0x3a1230f43a726bfcU, 0xb9445cf4b8ee638eU,
  0x3a3fa5bdba8b50e0U, 0xb99857e9ba874ae1U, 0xba865b0139b90e19U, 0xba5270f23a1f40c8U,
  0x3a275240b9efc323U, 0xb9fc73c6ba819eb4U, 0x39f8c19e39db57ffU, 0x39a2598739ea5b8aU,
  0x39d7fa73ba5e62a7U, 0x39f33d863a31b808U, 0xb9a426673a19737aU, 0xb96717c239cbede9U,
  0x399afded3a4ae359U, 0x3a0cd6503a6eb633U, 0xb97a4572b903aa4dU, 0x3a2d75baba995b54U,
  0xb9b8dc98ba7869acU, 0xba7334ee39dee84eU, 0xba46f3253a2f0d0cU, 0x3a34e699b9f191a5U,
  0xba148519ba7ddd70U, 0x39e9350f39ec3879U, 0x39d827f739f4a456U, 0x39fc9c90ba7eaa04U,
  0x39fec3703a3d8bcaU, 0xb9c93abf3a196421U, 0xb98610ba39dc5c90U, 0x39bbc61b3a57bff5U,
  0x3a0b652b3a5cbfc4U, 0xb99c567bb928af6fU, 0x3a24f681baa58863U, 0xb9d4bac3ba6d16c5U,
  0xba81dbdb39fd0a9dU, 0xba3b24c83a47b1bfU, 0x3a4b7e04b9e22fb9U, 0xba29a135ba8108efU,
  0x39e924f13a0129ddU, 0x39ff91533a012c64U, 0x3a197f81ba98a40cU, 0x3a0538cb3a44c5e3U,
  0xb9e5fca33a1c9808U, 0xb9b2155e39ed5e47U, 0x39da53973a7a92d5U, 0x3a1b85333a5801f8U,
  0xb9afc07ab93972b7U, 0x3a211bdcbabc1a5fU, 0xb9f105afba6cb1f8U, 0xba9dc9fd3a138a95U,
  0xba3746303a66138dU, 0x3a5bccc7b9d7d576U, 0xba463229ba773870U, 0x39d53a253a129c93U,
  0x3a07aa3d3a08e4afU, 0x3a2f2b24baa14b1aU, 0x3a0c855b3a4d2d12U, 0xba042a3c3a201664U,
  0xb9c50b9b3a01d024U, 0x39e54df73a8eea18U, 0x3a154a373a496943U, 0xb9ccd760b945c2c5U,
  0x3a1d99d5bacf2218U, 0xba038479ba5a5f36U, 0xbaa04af23a29fc05U, 0xba2b3dbd3a81376cU,
  0x3a72d97cb9cd120fU, 0xba5f3b8dba7c15a3U, 0x39cb0b503a2759e3U, 0x3a2a28723a0d846fU,
  0x3a4850b5bab10f64U, 0x3a0d49db3a54f39cU, 0xba166b103a2640a8U, 0xb9e6f89b3a0faaa2U,
  0x39f6d2f43a94a0ecU, 0x3a11eec53a3cb4e0U, 0xb9f4345ab947de79U, 0x3a0d1146bade849aU,
  0xba1191e4ba360374U, 0xbaade0a93a446289U, 0xba0821fd3a8f3afdU, 0x3a75c354b9c20bcfU,
  0xba756de9ba655784U, 0x39ba12023a3d96e5U, 0x3a357eba3a1cc230U, 0x3a635412bac30692U,
  0x3a0fb8613a59d2bcU, 0xba2651eb3a294615U, 0xba04a4723a233c4aU, 0x3a008aee3aa2a9d0U,
  0x3a0114bf3a32353dU, 0xba0a48b8b965aaf8U, 0x3a06b941bae56406U, 0xba1d8f87ba1bec12U,
  0xbaa23e433a524fffU, 0xb9d91fb83a9f1270U, 0x3a7c6bd9b9c21e21U, 0xba829fa2ba5a5c7eU,
  0x39bb14be3a5888bfU, 0x3a4859ac3a18b684U, 0x3a8025f9bad8ad9dU, 0x3a1143723a60aad2U,
  0xba3751a63a2fd66dU, 0xba12d5ff3a363b2cU, 0x3a08233d3ab24276U, 0x39f0fe983a2af240U,
  0xba1d14a4b979340dU, 0x39db2052baf67cb7U, 0xba2807f0ba0d48beU, 0xbaad24f83a665d4cU,
