#ifndef SINE_MODEL_H
#define SINE_MODEL_H


unsigned int sine_model_len = 3168;
unsigned char sine_model[] = {
 0x1c, 0x00, 0x00, 0x00, 0x54, 0x46, 0x4c, 0x33, 0x14, 0x00, 0x20, 0x00,
  0x1c, 0x00, 0x18, 0x00, 0x14, 0x00, 0x10, 0x00, 0x0c, 0x00, 0x00, 0x00,
  0x08, 0x00, 0x04, 0x00, 0x14, 0x00, 0x00, 0x00, 0x1c, 0x00, 0x00, 0x00,
  0x90, 0x00, 0x00, 0x00, 0xe8, 0x00, 0x00, 0x00, 0x04, 0x07, 0x00, 0x00,
  0x14, 0x07, 0x00, 0x00, 0x0c, 0x0c, 0x00, 0x00, 0x03, 0x00, 0x00, 0x00,
  0x01, 0x00, 0x00, 0x00, 0x10, 0x00, 0x00, 0x00, 0x00, 0x00, 0x0a, 0x00,
  0x10, 0x00, 0x0c, 0x00, 0x08, 0x00, 0x04, 0x00, 0x0a, 0x00, 0x00, 0x00,
  0x0c, 0x00, 0x00, 0x00, 0x1c, 0x00, 0x00, 0x00, 0x38, 0x00, 0x00, 0x00,
  0x0f, 0x00, 0x00, 0x00, 0x73, 0x65, 0x72, 0x76, 0x69, 0x6e, 0x67, 0x5f,
  0x64, 0x65, 0x66, 0x61, 0x75, 0x6c, 0x74, 0x00, 0x01, 0x00, 0x00, 0x00,
  0x04, 0x00, 0x00, 0x00, 0x98, 0xff, 0xff, 0xff, 0x09, 0x00, 0x00, 0x00,
  0x04, 0x00, 0x00, 0x00, 0x07, 0x00, 0x00, 0x00, 0x64, 0x65, 0x6e, 0x73,
  0x65, 0x5f, 0x32, 0x00, 0x01, 0x00, 0x00, 0x00, 0x04, 0x00, 0x00, 0x00,
  0xc6, 0xf9, 0xff, 0xff, 0x04, 0x00, 0x00, 0x00, 0x0b, 0x00, 0x00, 0x00,
  0x64, 0x65, 0x6e, 0x73, 0x65, 0x5f, 0x69, 0x6e, 0x70, 0x75, 0x74, 0x00,
  0x02, 0x00, 0x00, 0x00, 0x34, 0x00, 0x00, 0x00, 0x04, 0x00, 0x00, 0x00,
  0xdc, 0xff, 0xff, 0xff, 0x0c, 0x00, 0x00, 0x00, 0x04, 0x00, 0x00, 0x00,
  0x13, 0x00, 0x00, 0x00, 0x43, 0x4f, 0x4e, 0x56, 0x45, 0x52, 0x53, 0x49,
  0x4f, 0x4e, 0x5f, 0x4d, 0x45, 0x54, 0x41, 0x44, 0x41, 0x54, 0x41, 0x00,
  0x08, 0x00, 0x0c, 0x00, 0x08, 0x00, 0x04, 0x00, 0x08, 0x00, 0x00, 0x00,
  0x0b, 0x00, 0x00, 0x00, 0x04, 0x00, 0x00, 0x00, 0x13, 0x00, 0x00, 0x00,
  0x6d, 0x69, 0x6e, 0x5f, 0x72, 0x75, 0x6e, 0x74, 0x69, 0x6d, 0x65, 0x5f,
  0x76, 0x65, 0x72, 0x73, 0x69, 0x6f, 0x6e, 0x00, 0x0d, 0x00, 0x00, 0x00,
  0x18, 0x06, 0x00, 0x00, 0x10, 0x06, 0x00, 0x00, 0xc0, 0x05, 0x00, 0x00,
  0xa4, 0x05, 0x00, 0x00, 0x54, 0x05, 0x00, 0x00, 0x04, 0x05, 0x00, 0x00,
  0xf4, 0x00, 0x00, 0x00, 0xa4, 0x00, 0x00, 0x00, 0x9c, 0x00, 0x00, 0x00,
  0x94, 0x00, 0x00, 0x00, 0x8c, 0x00, 0x00, 0x00, 0x6c, 0x00, 0x00, 0x00,
  0x04, 0x00, 0x00, 0x00, 0x72, 0xfa, 0xff, 0xff, 0x04, 0x00, 0x00, 0x00,
  0x58, 0x00, 0x00, 0x00, 0x0c, 0x00, 0x00, 0x00, 0x08, 0x00, 0x0e, 0x00,
  0x08, 0x00, 0x04, 0x00, 0x08, 0x00, 0x00, 0x00, 0x10, 0x00, 0x00, 0x00,
  0x28, 0x00, 0x00, 0x00, 0x00, 0x00, 0x06, 0x00, 0x08, 0x00, 0x04, 0x00,
  0x06, 0x00, 0x00, 0x00, 0x04, 0x00, 0x00, 0x00, 0x01, 0x00, 0x00, 0x00,
  0xea, 0x03, 0x00, 0x00, 0x00, 0x00, 0x0a, 0x00, 0x10, 0x00, 0x0c, 0x00,
  0x08, 0x00, 0x04, 0x00, 0x0a, 0x00, 0x00, 0x00, 0x02, 0x00, 0x00, 0x00,
  0x02, 0x00, 0x00, 0x00, 0x04, 0x00, 0x00, 0x00, 0x06, 0x00, 0x00, 0x00,
  0x32, 0x2e, 0x31, 0x34, 0x2e, 0x30, 0x00, 0x00, 0xd6, 0xfa, 0xff, 0xff,
  0x04, 0x00, 0x00, 0x00, 0x10, 0x00, 0x00, 0x00, 0x31, 0x2e, 0x35, 0x2e,
  0x30, 0x00, 0x00, 0x00, 0x00, 0x00, 0x00, 0x00, 0x00, 0x00, 0x00, 0x00,
  0xc0, 0xf5, 0xff, 0xff, 0xc4, 0xf5, 0xff, 0xff, 0xc8, 0xf5, 0xff, 0xff,
  0xfe, 0xfa, 0xff, 0xff, 0x04, 0x00, 0x00, 0x00, 0x40, 0x00, 0x00, 0x00,
  0x69, 0x61, 0x67, 0xbf, 0xc3, 0x4b, 0x21, 0x3e, 0xf3, 0xb0, 0x3f, 0xbe,
  0xff, 0x11, 0xe4, 0xbe, 0xa0, 0xb5, 0x82, 0xbf, 0xc1, 0xb7, 0xc4, 0xbe,
  0x1e, 0xff, 0xde, 0xbd, 0x55, 0x61, 0x87, 0x3e, 0x7e, 0x5d, 0x86, 0x3e,
  0x3c, 0xb5, 0xc4, 0xbc, 0xcd, 0xdb, 0x8a, 0xbe, 0x39, 0x0f, 0x86, 0x3f,
  0x5e, 0x6c, 0x01, 0x3f, 0x1e, 0x41, 0x36, 0x3f, 0x91, 0x76, 0xbe, 0x3f,
  0xa1, 0xd3, 0xc5, 0xbe, 0x4a, 0xfb, 0xff, 0xff, 0x04, 0x00, 0x00, 0x00,
  0x00, 0x04, 0x00, 0x00, 0xbd, 0x79, 0xa2, 0x3e, 0x92, 0x98, 0xc5, 0xbe,
  0x40, 0x5d, 0x63, 0xbd, 0x8c, 0x4d, 0x34, 0x3f, 0xb0, 0x3d, 0xd5, 0x3c,
  0x21, 0xee, 0x50, 0x3f, 0x1a, 0x5a, 0x25, 0xbe, 0x92, 0xa3, 0x84, 0xbe,
  0xae, 0x7b, 0x3c, 0xbf, 0x39, 0xe0, 0xc8, 0x3e, 0x28, 0xfe, 0x8d, 0x3c,
  0xe2, 0x65, 0x21, 0xbe, 0x53, 0xe3, 0xec, 0xbe, 0xa8, 0x26, 0x4a, 0xbd,
  0xa0, 0xe3, 0x7a, 0x3e, 0x80, 0x23, 0x1f, 0x3b, 0xf7, 0xf2, 0xc8, 0x3e,
  0xa2, 0x4d, 0x38, 0xbe, 0xa2, 0x70, 0x75, 0xbe, 0xc3, 0x3d, 0xed, 0x3c,
  0x80, 0x65, 0xde, 0x3b, 0x23, 0xdf, 0x43, 0x3d, 0x82, 0x79, 0x59, 0xbd,
  0x30, 0xd9, 0x88, 0xbe, 0x9c, 0x82, 0x40, 0xbe, 0x00, 0x20, 0x8a, 0xb8,
  0xda, 0x21, 0x20, 0xbe, 0x01, 0x33, 0xae, 0xbe, 0xa0, 0x7a, 0x99, 0xbe,
  0x1e, 0xc8, 0x96, 0xbe, 0xdb, 0x42, 0x90, 0x3e, 0x6f, 0x96, 0x55, 0xbe,
  0x7c, 0x26, 0xb0, 0xbd, 0xba, 0x6d, 0x53, 0x3e, 0xe8, 0x08, 0xae, 0xbe,
  0x9e, 0x71, 0x91, 0x3c, 0xf6, 0xbf, 0x30, 0x3e, 0x7e, 0x07, 0x67, 0xbe,
  0x23, 0xec, 0xaa, 0xbe, 0xa6, 0x14, 0xb0, 0xbe, 0x31, 0xf5, 0x8a, 0x3e,
  0x30, 0x83, 0xc4, 0x3c, 0x3d, 0xb2, 0xef, 0xbd, 0x3a, 0xb9, 0x6a, 0x3e,
  0x0c, 0x8f, 0xe2, 0x3e, 0x9d, 0x94, 0x56, 0xbe, 0x3c, 0x01, 0x53, 0x3e,
  0x8d, 0x6e, 0x83, 0x3e, 0x32, 0xff, 0xae, 0xbe, 0x94, 0x33, 0x09, 0xbe,
  0xd6, 0x93, 0x0b, 0x3e, 0x3b, 0x08, 0x46, 0x3d, 0xca, 0x6d, 0x61, 0x3e,
  0x3e, 0x40, 0x0e, 0xbe, 0xce, 0x31, 0x0a, 0xbe, 0xfe, 0x7b, 0x4f, 0x3e,
  0x16, 0xb6, 0x6d, 0x3e, 0x71, 0x0c, 0xb4, 0x3e, 0x67, 0x39, 0x38, 0x3e,
  0xb0, 0x6e, 0x96, 0xbe, 0x0b, 0x16, 0x31, 0x3e, 0xa0, 0x0d, 0xbd, 0xbc,
  0xab, 0xa4, 0xa0, 0xbb, 0x8a, 0xad, 0x6c, 0x3e, 0xad, 0x92, 0xa2, 0x3e,
  0x78, 0x20, 0x04, 0xbd, 0x11, 0xcd, 0xb7, 0xbe, 0x6c, 0x47, 0x9d, 0x3e,
  0x04, 0xb6, 0xf2, 0x3d, 0x8b, 0xbc, 0x6c, 0xbc, 0x37, 0x05, 0x8b, 0x3c,
  0xa8, 0xb7, 0x1f, 0xbe, 0x86, 0x27, 0xa8, 0xbe, 0xf3, 0xe8, 0x87, 0xbe,
  0x46, 0x55, 0x44, 0xbf, 0x75, 0x03, 0xb4, 0xbe, 0x74, 0x11, 0xbc, 0xbe,
  0xf0, 0x9e, 0xaf, 0xbe, 0xf8, 0xe0, 0xcf, 0x3d, 0x60, 0x48, 0xaf, 0xbe,
  0x20, 0xb6, 0xc1, 0xbc, 0xf9, 0x9d, 0xa9, 0x3e, 0xf3, 0xb0, 0xc4, 0xbe,
  0x65, 0x26, 0xb1, 0xbe, 0x77, 0x47, 0xc0, 0x3e, 0x5f, 0xfb, 0xbf, 0x3e,
  0x25, 0x3b, 0xcc, 0xbe, 0x87, 0xd5, 0xd6, 0x3e, 0xac, 0x97, 0x85, 0xbd,
  0xf5, 0x94, 0xc7, 0x3e, 0x16, 0xeb, 0x38, 0x3e, 0x26, 0x1c, 0xbe, 0xbe,
  0x42, 0x23, 0x2d, 0xbe, 0xf2, 0xf8, 0x1d, 0x3e, 0x88, 0x8c, 0x22, 0xbd,
  0x6f, 0xcd, 0xc9, 0xbe, 0x76, 0x26, 0x36, 0x3e, 0x68, 0xc1, 0xd7, 0xbe,
  0xd9, 0xde, 0xbf, 0x3e, 0xfe, 0x80, 0xeb, 0x3e, 0x2c, 0x63, 0xed, 0xbd,
  0xc7, 0xb8, 0x36, 0x3e, 0x6f, 0xdd, 0x88, 0x3e, 0x04, 0xd0, 0x8e, 0xbd,
  0x5d, 0x7d, 0xd8, 0x3e, 0x44, 0xb0, 0x12, 0xbe, 0x7c, 0x97, 0xcc, 0xba,
  0xe1, 0x4c, 0x9a, 0xbe, 0x30, 0x27, 0x2b, 0xbe, 0x20, 0x10, 0xa1, 0x3c,
  0x96, 0xd2, 0x51, 0x3e, 0x44, 0xed, 0xb5, 0x3d, 0xa0, 0xdf, 0x94, 0x3c,
  0x1c, 0x7e, 0xad, 0xbd, 0x19, 0x0d, 0xca, 0x3e, 0xa1, 0x36, 0x3f, 0xbf,
  0x8e, 0xb0, 0x20, 0xbe, 0x1e, 0x0e, 0x38, 0xbf, 0xbe, 0xd8, 0x15, 0x3e,
  0xe9, 0x2f, 0xbc, 0xbe, 0xe2, 0x82, 0x00, 0x3e, 0x55, 0x28, 0xaf, 0xbe,
  0x51, 0x1d, 0xa8, 0x3e, 0xdf, 0x92, 0xa6, 0x3e, 0x53, 0x3a, 0x58, 0x3e,
  0x65, 0x30, 0xc1, 0x3e, 0x06, 0x82, 0x04, 0x3f, 0xf5, 0xb2, 0xc2, 0x3e,
  0x64, 0xe9, 0xa0, 0xbe, 0xd7, 0x5a, 0xb8, 0x3e, 0x77, 0xb9, 0xca, 0x3e,
  0x94, 0x96, 0x89, 0xbd, 0xdb, 0x65, 0x79, 0xbe, 0x94, 0x5c, 0xe5, 0xbe,
  0xab, 0x8e, 0x4a, 0xbe, 0xb6, 0xaa, 0x2d, 0xbe, 0xa8, 0x61, 0xcb, 0x3e,
  0x6d, 0x8f, 0xbe, 0xbe, 0x20, 0xb2, 0x4c, 0x3e, 0xa2, 0xe9, 0x3d, 0x3e,
  0x40, 0x33, 0xd6, 0x3d, 0x36, 0x97, 0x5a, 0x3e, 0x33, 0xa1, 0xcf, 0x3e,
  0x7c, 0x00, 0xa8, 0xbe, 0x2d, 0xb1, 0xa5, 0x3e, 0x24, 0x09, 0xca, 0x3d,
  0xda, 0xaa, 0x2a, 0x3e, 0x44, 0x34, 0xa5, 0x3d, 0xae, 0xfb, 0xd3, 0xbe,
  0x5d, 0xeb, 0x19, 0xbe, 0x28, 0x10, 0x10, 0xbb, 0x62, 0x8a, 0x36, 0x3e,
  0x56, 0x84, 0x72, 0x3e, 0x2c, 0x91, 0xc4, 0x3d, 0x3b, 0x14, 0xa5, 0xbd,
  0xd2, 0xd9, 0x3e, 0x3e, 0xb3, 0x43, 0x05, 0xbe, 0x21, 0x46, 0xba, 0x3e,
  0xea, 0xf6, 0xfa, 0x3d, 0x88, 0x46, 0x3b, 0xbd, 0xaa, 0x3b, 0x82, 0xbe,
  0x96, 0x4b, 0xb0, 0xbe, 0xa0, 0xba, 0xb8, 0xbc, 0x8c, 0xa0, 0x31, 0xbe,
  0x58, 0x63, 0x80, 0xbd, 0x42, 0xf3, 0xd0, 0xbc, 0x1e, 0xac, 0xaa, 0xbe,
  0x7b, 0xab, 0xa4, 0x3e, 0x41, 0x2e, 0xd8, 0x3e, 0x70, 0xcd, 0xd0, 0x3c,
  0x12, 0xa9, 0x76, 0x3e, 0xf6, 0x0b, 0x5e, 0x3e, 0x26, 0x95, 0xec, 0x3d,
  0xb0, 0x0a, 0x77, 0x3d, 0x76, 0xaa, 0x54, 0x3e, 0x2c, 0x26, 0xa3, 0x3d,
  0x90, 0xb1, 0x51, 0xbd, 0x2a, 0xef, 0x42, 0x3e, 0xf4, 0xd6, 0xd0, 0x3d,
  0x08, 0x75, 0x50, 0xbf, 0xb9, 0x95, 0xbf, 0x3e, 0x68, 0x66, 0xbd, 0xbd,
  0x58, 0xfb, 0x7d, 0x3e, 0xd2, 0x79, 0xce, 0xbe, 0xb1, 0xf6, 0xab, 0x3e,
  0x16, 0x64, 0x5d, 0xbe, 0x89, 0x19, 0x14, 0x3d, 0x5f, 0x5b, 0x80, 0x3e,
  0x9b, 0xf1, 0xbe, 0xbe, 0xe0, 0x34, 0x9a, 0x3c, 0xb7, 0x9f, 0xcf, 0x3e,
  0x00, 0x1c, 0x2b, 0xbc, 0x5a, 0x2e, 0x00, 0xbe, 0xcc, 0xa9, 0xb0, 0x3d,
  0x6b, 0x40, 0xd6, 0x3e, 0xcd, 0x5c, 0x4d, 0xbe, 0xe0, 0x92, 0x7a, 0x3c,
  0x42, 0x2c, 0x56, 0xbe, 0x6c, 0xca, 0xab, 0xbe, 0x98, 0x1d, 0xd5, 0xbd,
  0xc9, 0x27, 0x64, 0xbe, 0x4e, 0xf6, 0x26, 0x3e, 0x88, 0xa5, 0x8e, 0xbd,
  0xac, 0xdf, 0xf6, 0x3d, 0x37, 0x68, 0x9d, 0x3e, 0x03, 0xf8, 0xc8, 0x3e,
  0x78, 0xd3, 0x93, 0xbd, 0x36, 0x67, 0xb4, 0xbe, 0xac, 0x49, 0xc6, 0xbe,
  0x3a, 0x21, 0x71, 0x3e, 0x28, 0x16, 0x89, 0x3d, 0xa4, 0xe4, 0x54, 0xbf,
  0xb0, 0x0f, 0x60, 0x3d, 0x5f, 0x94, 0x66, 0xbe, 0xa8, 0xa1, 0x4a, 0x3b,
  0x5c, 0xe6, 0x2d, 0xbe, 0x61, 0x82, 0x0a, 0x3e, 0x45, 0x9a, 0xbc, 0xbe,
  0xcf, 0x1b, 0x52, 0x3e, 0xf2, 0x81, 0x2f, 0x3e, 0x4a, 0xf9, 0xb7, 0x3d,
  0xde, 0x86, 0x1e, 0x3e, 0xb2, 0x42, 0x06, 0x3f, 0xd0, 0x07, 0x11, 0xbd,
  0x72, 0x74, 0x1d, 0xbe, 0x2b, 0x35, 0xc5, 0xbe, 0x00, 0xf9, 0x9f, 0xba,
  0x02, 0x35, 0x34, 0x3f, 0x02, 0x61, 0x35, 0xbe, 0x08, 0x56, 0x8c, 0x3f,
  0x8e, 0x9a, 0x1c, 0x3e, 0x30, 0x6e, 0xab, 0xbe, 0xd2, 0x82, 0x43, 0xbc,
  0xd3, 0x98, 0xcf, 0xbe, 0x13, 0xfe, 0x3e, 0xbe, 0xbc, 0xc8, 0xd7, 0xbd,
  0x78, 0xce, 0x8e, 0xbe, 0xeb, 0x87, 0xc6, 0x3e, 0x5b, 0x06, 0x48, 0xbf,
  0x26, 0xc1, 0x30, 0xbe, 0x0f, 0x0d, 0x82, 0x3e, 0xda, 0xc1, 0x5b, 0x3e,
  0x38, 0x72, 0x81, 0xbe, 0xc2, 0xf0, 0xa9, 0x3e, 0x80, 0xb2, 0x37, 0xbc,
  0xd4, 0x0a, 0x12, 0x3f, 0x70, 0xd4, 0xd4, 0xbb, 0xae, 0x5b, 0x9f, 0xbe,
  0x7b, 0xc4, 0xb0, 0x3e, 0x2d, 0x9d, 0xd6, 0x3e, 0x97, 0xb3, 0xc3, 0x3e,
  0x6d, 0x5f, 0x91, 0xbe, 0xcc, 0x79, 0xd4, 0x3e, 0x94, 0x90, 0xe7, 0xbd,
  0xd3, 0x32, 0x62, 0xbe, 0xf5, 0x7e, 0xb0, 0x3e, 0x56, 0xff, 0xff, 0xff,
  0x04, 0x00, 0x00, 0x00, 0x40, 0x00, 0x00, 0x00, 0x91, 0xd1, 0x88, 0xbe,
  0x40, 0x61, 0x80, 0xbc, 0xea, 0x6c, 0x1a, 0xbe, 0x4f, 0xbe, 0x98, 0xbd,
  0x70, 0xbc, 0x89, 0xbe, 0xb3, 0x1e, 0x6d, 0xbc, 0xc4, 0x01, 0x10, 0x3f,
  0x80, 0xfd, 0xe5, 0xbe, 0xee, 0xd8, 0x09, 0x3f, 0xc1, 0xc0, 0x8b, 0xbe,
  0x5b, 0x8c, 0xee, 0x3e, 0x0c, 0xb7, 0x0b, 0xbf, 0x96, 0x2e, 0xfc, 0x3e,
  0x2a, 0x54, 0x6f, 0xbe, 0x2a, 0xf0, 0x01, 0x3f, 0x46, 0xa4, 0xe5, 0xbe,
  0xa2, 0xff, 0xff, 0xff, 0x04, 0x00, 0x00, 0x00, 0x40, 0x00, 0x00, 0x00,
  0x00, 0x00, 0x00, 0x00, 0x00, 0x00, 0x00, 0x00, 0x00, 0x00, 0x00, 0x00,
  0x3d, 0x5a, 0xb2, 0x3f, 0x00, 0x00, 0x00, 0x00, 0x9f, 0x2d, 0x0a, 0x3f,
  0x57, 0xb0, 0xa0, 0x3d, 0x00, 0x00, 0x00, 0x00, 0x5f, 0xf3, 0xae, 0xbb,
  0x00, 0x00, 0x00, 0x00, 0xde, 0xfc, 0x34, 0xbd, 0x00, 0x00, 0x00, 0x00,
  0x41, 0xd0, 0x81, 0xbd, 0x00, 0x00, 0x00, 0x00, 0x6f, 0xfc, 0x77, 0xbf,
  0x00, 0x00, 0x00, 0x00, 0xee, 0xff, 0xff, 0xff, 0x04, 0x00, 0x00, 0x00,
  0x04, 0x00, 0x00, 0x00, 0x3d, 0xb7, 0x99, 0xbe, 0x00, 0x00, 0x06, 0x00,
  0x08, 0x00, 0x04, 0x00, 0x06, 0x00, 0x00, 0x00, 0x04, 0x00, 0x00, 0x00,
  0x40, 0x00, 0x00, 0x00, 0x79, 0xad, 0x0e, 0x3f, 0xcb, 0xdd, 0x8d, 0xbd,
  0xe7, 0xe0, 0x9f, 0x3d, 0x37, 0x4c, 0xb5, 0xbd, 0x96, 0xf9, 0xb6, 0x3e,
  0x00, 0x00, 0x00, 0x00, 0xf7, 0x4a, 0x0e, 0x3d, 0xd6, 0xc4, 0x78, 0xbe,
  0x64, 0xae, 0x71, 0xbe, 0x48, 0x8c, 0x52, 0xbd, 0xa7, 0x83, 0x5e, 0xbd,
  0x0d, 0x3e, 0x8c, 0xbe, 0x00, 0x00, 0x00, 0x00, 0x93, 0x37, 0x68, 0xbe,
  0x74, 0x1d, 0x28, 0x3f, 0x20, 0x2a, 0x96, 0x3d, 0x20, 0xfb, 0xff, 0xff,
  0x24, 0xfb, 0xff, 0xff, 0x0f, 0x00, 0x00, 0x00, 0x4d, 0x4c, 0x49, 0x52,
  0x20, 0x43, 0x6f, 0x6e, 0x76, 0x65, 0x72, 0x74, 0x65, 0x64, 0x2e, 0x00,
  0x01, 0x00, 0x00, 0x00, 0x14, 0x00, 0x00, 0x00, 0x00, 0x00, 0x0e, 0x00,
  0x18, 0x00, 0x14, 0x00, 0x10, 0x00, 0x0c, 0x00, 0x08, 0x00, 0x04, 0x00,
  0x0e, 0x00, 0x00, 0x00, 0x14, 0x00, 0x00, 0x00, 0x1c, 0x00, 0x00, 0x00,
  0xd8, 0x00, 0x00, 0x00, 0xdc, 0x00, 0x00, 0x00, 0xe0, 0x00, 0x00, 0x00,
  0x04, 0x00, 0x00, 0x00, 0x6d, 0x61, 0x69, 0x6e, 0x00, 0x00, 0x00, 0x00,
  0x03, 0x00, 0x00, 0x00, 0x80, 0x00, 0x00, 0x00, 0x38, 0x00, 0x00, 0x00,
  0x04, 0x00, 0x00, 0x00, 0x9a, 0xff, 0xff, 0xff, 0x10, 0x00, 0x00, 0x00,
  0x00, 0x00, 0x00, 0x08, 0x0c, 0x00, 0x00, 0x00, 0x10, 0x00, 0x00, 0x00,
  0x9c, 0xfb, 0xff, 0xff, 0x01, 0x00, 0x00, 0x00, 0x09, 0x00, 0x00, 0x00,
  0x03, 0x00, 0x00, 0x00, 0x08, 0x00, 0x00, 0x00, 0x06, 0x00, 0x00, 0x00,
  0x02, 0x00, 0x00, 0x00, 0xca, 0xff, 0xff, 0xff, 0x10, 0x00, 0x00, 0x00,
  0x00, 0x00, 0x00, 0x08, 0x10, 0x00, 0x00, 0x00, 0x14, 0x00, 0x00, 0x00,
  0xba, 0xff, 0xff, 0xff, 0x00, 0x00, 0x00, 0x01, 0x01, 0x00, 0x00, 0x00,
  0x08, 0x00, 0x00, 0x00, 0x03, 0x00, 0x00, 0x00, 0x07, 0x00, 0x00, 0x00,
  0x05, 0x00, 0x00, 0x00, 0x01, 0x00, 0x00, 0x00, 0x00, 0x00, 0x0e, 0x00,
  0x16, 0x00, 0x00, 0x00, 0x10, 0x00, 0x0c, 0x00, 0x0b, 0x00, 0x04, 0x00,
  0x0e, 0x00, 0x00, 0x00, 0x18, 0x00, 0x00, 0x00, 0x00, 0x00, 0x00, 0x08,
  0x18, 0x00, 0x00, 0x00, 0x1c, 0x00, 0x00, 0x00, 0x00, 0x00, 0x06, 0x00,
  0x08, 0x00, 0x07, 0x00, 0x06, 0x00, 0x00, 0x00, 0x00, 0x00, 0x00, 0x01,
  0x01, 0x00, 0x00, 0x00, 0x07, 0x00, 0x00, 0x00, 0x03, 0x00, 0x00, 0x00,
  0x00, 0x00, 0x00, 0x00, 0x04, 0x00, 0x00, 0x00, 0x03, 0x00, 0x00, 0x00,
  0x01, 0x00, 0x00, 0x00, 0x09, 0x00, 0x00, 0x00, 0x01, 0x00, 0x00, 0x00,
  0x00, 0x00, 0x00, 0x00, 0x0a, 0x00, 0x00, 0x00, 0x8c, 0x03, 0x00, 0x00,
  0x1c, 0x03, 0x00, 0x00, 0xac, 0x02, 0x00, 0x00, 0x58, 0x02, 0x00, 0x00,
  0x10, 0x02, 0x00, 0x00, 0xc4, 0x01, 0x00, 0x00, 0x78, 0x01, 0x00, 0x00,
  0xf0, 0x00, 0x00, 0x00, 0x60, 0x00, 0x00, 0x00, 0x04, 0x00, 0x00, 0x00,
  0xb2, 0xfc, 0xff, 0xff, 0x00, 0x00, 0x00, 0x01, 0x14, 0x00, 0x00, 0x00,
  0x1c, 0x00, 0x00, 0x00, 0x1c, 0x00, 0x00, 0x00, 0x0a, 0x00, 0x00, 0x00,
  0x34, 0x00, 0x00, 0x00, 0x02, 0x00, 0x00, 0x00, 0xff, 0xff, 0xff, 0xff,
  0x01, 0x00, 0x00, 0x00, 0x9c, 0xfc, 0xff, 0xff, 0x19, 0x00, 0x00, 0x00,
  0x53, 0x74, 0x61, 0x74, 0x65, 0x66, 0x75, 0x6c, 0x50, 0x61, 0x72, 0x74,
  0x69, 0x74, 0x69, 0x6f, 0x6e, 0x65, 0x64, 0x43, 0x61, 0x6c, 0x6c, 0x3a,
  0x30, 0x00, 0x00, 0x00, 0x02, 0x00, 0x00, 0x00, 0x01, 0x00, 0x00, 0x00,
  0x01, 0x00, 0x00, 0x00, 0x0a, 0xfd, 0xff, 0xff, 0x00, 0x00, 0x00, 0x01,
  0x14, 0x00, 0x00, 0x00, 0x1c, 0x00, 0x00, 0x00, 0x1c, 0x00, 0x00, 0x00,
  0x09, 0x00, 0x00, 0x00, 0x68, 0x00, 0x00, 0x00, 0x02, 0x00, 0x00, 0x00,
  0xff, 0xff, 0xff, 0xff, 0x10, 0x00, 0x00, 0x00, 0xf4, 0xfc, 0xff, 0xff,
  0x4c, 0x00, 0x00, 0x00, 0x73, 0x65, 0x71, 0x75, 0x65, 0x6e, 0x74, 0x69,
  0x61, 0x6c, 0x2f, 0x64, 0x65, 0x6e, 0x73, 0x65, 0x5f, 0x31, 0x2f, 0x4d,
  0x61, 0x74, 0x4d, 0x75, 0x6c, 0x3b, 0x73, 0x65, 0x71, 0x75, 0x65, 0x6e,
  0x74, 0x69, 0x61, 0x6c, 0x2f, 0x64, 0x65, 0x6e, 0x73, 0x65, 0x5f, 0x31,
  0x2f, 0x52, 0x65, 0x6c, 0x75, 0x3b, 0x73, 0x65, 0x71, 0x75, 0x65, 0x6e,
  0x74, 0x69, 0x61, 0x6c, 0x2f, 0x64, 0x65, 0x6e, 0x73, 0x65, 0x5f, 0x31,
  0x2f, 0x42, 0x69, 0x61, 0x73, 0x41, 0x64, 0x64, 0x00, 0x00, 0x00, 0x00,
  0x02, 0x00, 0x00, 0x00, 0x01, 0x00, 0x00, 0x00, 0x10, 0x00, 0x00, 0x00,
  0x96, 0xfd, 0xff, 0xff, 0x00, 0x00, 0x00, 0x01, 0x14, 0x00, 0x00, 0x00,
  0x1c, 0x00, 0x00, 0x00, 0x1c, 0x00, 0x00, 0x00, 0x08, 0x00, 0x00, 0x00,
  0x60, 0x00, 0x00, 0x00, 0x02, 0x00, 0x00, 0x00, 0xff, 0xff, 0xff, 0xff,
  0x10, 0x00, 0x00, 0x00, 0x80, 0xfd, 0xff, 0xff, 0x46, 0x00, 0x00, 0x00,
  0x73, 0x65, 0x71, 0x75, 0x65, 0x6e, 0x74, 0x69, 0x61, 0x6c, 0x2f, 0x64,
  0x65, 0x6e, 0x73, 0x65, 0x2f, 0x4d, 0x61, 0x74, 0x4d, 0x75, 0x6c, 0x3b,
  0x73, 0x65, 0x71, 0x75, 0x65, 0x6e, 0x74, 0x69, 0x61, 0x6c, 0x2f, 0x64,
  0x65, 0x6e, 0x73, 0x65, 0x2f, 0x52, 0x65, 0x6c, 0x75, 0x3b, 0x73, 0x65,
  0x71, 0x75, 0x65, 0x6e, 0x74, 0x69, 0x61, 0x6c, 0x2f, 0x64, 0x65, 0x6e,
  0x73, 0x65, 0x2f, 0x42, 0x69, 0x61, 0x73, 0x41, 0x64, 0x64, 0x00, 0x00,
  0x02, 0x00, 0x00, 0x00, 0x01, 0x00, 0x00, 0x00, 0x10, 0x00, 0x00, 0x00,
  0x86, 0xfe, 0xff, 0xff, 0x00, 0x00, 0x00, 0x01, 0x10, 0x00, 0x00, 0x00,
  0x10, 0x00, 0x00, 0x00, 0x07, 0x00, 0x00, 0x00, 0x28, 0x00, 0x00, 0x00,
  0xf4, 0xfd, 0xff, 0xff, 0x19, 0x00, 0x00, 0x00, 0x73, 0x65, 0x71, 0x75,
  0x65, 0x6e, 0x74, 0x69, 0x61, 0x6c, 0x2f, 0x64, 0x65, 0x6e, 0x73, 0x65,
  0x5f, 0x32, 0x2f, 0x4d, 0x61, 0x74, 0x4d, 0x75, 0x6c, 0x00, 0x00, 0x00,
  0x02, 0x00, 0x00, 0x00, 0x01, 0x00, 0x00, 0x00, 0x10, 0x00, 0x00, 0x00,
  0xce, 0xfe, 0xff, 0xff, 0x00, 0x00, 0x00, 0x01, 0x10, 0x00, 0x00, 0x00,
  0x10, 0x00, 0x00, 0x00, 0x06, 0x00, 0x00, 0x00, 0x28, 0x00, 0x00, 0x00,
  0x3c, 0xfe, 0xff, 0xff, 0x19, 0x00, 0x00, 0x00, 0x73, 0x65, 0x71, 0x75,
  0x65, 0x6e, 0x74, 0x69, 0x61, 0x6c, 0x2f, 0x64, 0x65, 0x6e, 0x73, 0x65,
  0x5f, 0x31, 0x2f, 0x4d, 0x61, 0x74, 0x4d, 0x75, 0x6c, 0x00, 0x00, 0x00,
  0x02, 0x00, 0x00, 0x00, 0x10, 0x00, 0x00, 0x00, 0x10, 0x00, 0x00, 0x00,
  0x16, 0xff, 0xff, 0xff, 0x00, 0x00, 0x00, 0x01, 0x10, 0x00, 0x00, 0x00,
  0x10, 0x00, 0x00, 0x00, 0x05, 0x00, 0x00, 0x00, 0x24, 0x00, 0x00, 0x00,
  0x84, 0xfe, 0xff, 0xff, 0x17, 0x00, 0x00, 0x00, 0x73, 0x65, 0x71, 0x75,
  0x65, 0x6e, 0x74, 0x69, 0x61, 0x6c, 0x2f, 0x64, 0x65, 0x6e, 0x73, 0x65,
  0x2f, 0x4d, 0x61, 0x74, 0x4d, 0x75, 0x6c, 0x00, 0x02, 0x00, 0x00, 0x00,
  0x10, 0x00, 0x00, 0x00, 0x01, 0x00, 0x00, 0x00, 0x5a, 0xff, 0xff, 0xff,
  0x00, 0x00, 0x00, 0x01, 0x10, 0x00, 0x00, 0x00, 0x10, 0x00, 0x00, 0x00,
  0x04, 0x00, 0x00, 0x00, 0x34, 0x00, 0x00, 0x00, 0xc8, 0xfe, 0xff, 0xff,
  0x27, 0x00, 0x00, 0x00, 0x73, 0x65, 0x71, 0x75, 0x65, 0x6e, 0x74, 0x69,
  0x61, 0x6c, 0x2f, 0x64, 0x65, 0x6e, 0x73, 0x65, 0x2f, 0x42, 0x69, 0x61,
  0x73, 0x41, 0x64, 0x64, 0x2f, 0x52, 0x65, 0x61, 0x64, 0x56, 0x61, 0x72,
  0x69, 0x61, 0x62, 0x6c, 0x65, 0x4f, 0x70, 0x00, 0x01, 0x00, 0x00, 0x00,
  0x10, 0x00, 0x00, 0x00, 0xaa, 0xff, 0xff, 0xff, 0x00, 0x00, 0x00, 0x01,
  0x10, 0x00, 0x00, 0x00, 0x10, 0x00, 0x00, 0x00, 0x03, 0x00, 0x00, 0x00,
  0x38, 0x00, 0x00, 0x00, 0x18, 0xff, 0xff, 0xff, 0x29, 0x00, 0x00, 0x00,
  0x73, 0x65, 0x71, 0x75, 0x65, 0x6e, 0x74, 0x69, 0x61, 0x6c, 0x2f, 0x64,
  0x65, 0x6e, 0x73, 0x65, 0x5f, 0x32, 0x2f, 0x42, 0x69, 0x61, 0x73, 0x41,
  0x64, 0x64, 0x2f, 0x52, 0x65, 0x61, 0x64, 0x56, 0x61, 0x72, 0x69, 0x61,
  0x62, 0x6c, 0x65, 0x4f, 0x70, 0x00, 0x00, 0x00, 0x01, 0x00, 0x00, 0x00,
  0x01, 0x00, 0x00, 0x00, 0x00, 0x00, 0x16, 0x00, 0x18, 0x00, 0x14, 0x00,
  0x00, 0x00, 0x10, 0x00, 0x0c, 0x00, 0x08, 0x00, 0x00, 0x00, 0x00, 0x00,
  0x00, 0x00, 0x07, 0x00, 0x16, 0x00, 0x00, 0x00, 0x00, 0x00, 0x00, 0x01,
  0x10, 0x00, 0x00, 0x00, 0x10, 0x00, 0x00, 0x00, 0x02, 0x00, 0x00, 0x00,
  0x38, 0x00, 0x00, 0x00, 0x84, 0xff, 0xff, 0xff, 0x29, 0x00, 0x00, 0x00,
  0x73, 0x65, 0x71, 0x75, 0x65, 0x6e, 0x74, 0x69, 0x61, 0x6c, 0x2f, 0x64,
  0x65, 0x6e, 0x73, 0x65, 0x5f, 0x31, 0x2f, 0x42, 0x69, 0x61, 0x73, 0x41,
  0x64, 0x64, 0x2f, 0x52, 0x65, 0x61, 0x64, 0x56, 0x61, 0x72, 0x69, 0x61,
  0x62, 0x6c, 0x65, 0x4f, 0x70, 0x00, 0x00, 0x00, 0x01, 0x00, 0x00, 0x00,
  0x10, 0x00, 0x00, 0x00, 0x00, 0x00, 0x16, 0x00, 0x1c, 0x00, 0x18, 0x00,
  0x00, 0x00, 0x14, 0x00, 0x10, 0x00, 0x0c, 0x00, 0x00, 0x00, 0x00, 0x00,
  0x08, 0x00, 0x07, 0x00, 0x16, 0x00, 0x00, 0x00, 0x00, 0x00, 0x00, 0x01,
  0x14, 0x00, 0x00, 0x00, 0x20, 0x00, 0x00, 0x00, 0x20, 0x00, 0x00, 0x00,
  0x01, 0x00, 0x00, 0x00, 0x3c, 0x00, 0x00, 0x00, 0x02, 0x00, 0x00, 0x00,
  0xff, 0xff, 0xff, 0xff, 0x01, 0x00, 0x00, 0x00, 0x04, 0x00, 0x04, 0x00,
  0x04, 0x00, 0x00, 0x00, 0x1d, 0x00, 0x00, 0x00, 0x73, 0x65, 0x72, 0x76,
  0x69, 0x6e, 0x67, 0x5f, 0x64, 0x65, 0x66, 0x61, 0x75, 0x6c, 0x74, 0x5f,
  0x64, 0x65, 0x6e, 0x73, 0x65, 0x5f, 0x69, 0x6e, 0x70, 0x75, 0x74, 0x3a,
  0x30, 0x00, 0x00, 0x00, 0x02, 0x00, 0x00, 0x00, 0x01, 0x00, 0x00, 0x00,
  0x01, 0x00, 0x00, 0x00, 0x01, 0x00, 0x00, 0x00, 0x10, 0x00, 0x00, 0x00,
  0x0c, 0x00, 0x0c, 0x00, 0x0b, 0x00, 0x00, 0x00, 0x00, 0x00, 0x04, 0x00,
  0x0c, 0x00, 0x00, 0x00, 0x09, 0x00, 0x00, 0x00, 0x00, 0x00, 0x00, 0x09
 
};

#endif //SINE_MODEL_H